{
  "version": "1.0",
  "truncation": null,
  "padding": null,
  "added_tokens": [
    {
      "id": 0,
      "content": "[PAD]",
      "single_word": false,
      "lstrip": false,
      "rstrip": false,
      "normalized": false,
      "special": true
    },
    {
      "id": 1,
      "content": "[UNK]",
      "single_word": false,
      "lstrip": false,
      "rstrip": false,
      "normalized": false,
      "special": true
    },
    {
      "id": 2,
      "content": "[SOS]",
      "single_word": false,
      "lstrip": false,
      "rstrip": false,
      "normalized": false,
      "special": true
    },
    {
      "id": 3,
      "content": "[EOS]",
      "single_word": false,
      "lstrip": false,
      "rstrip": false,
      "normalized": false,
      "special": true
    }
  ],
  "normalizer": null,
  "pre_tokenizer": {
    "type": "BertPreTokenizer"
  },
  "post_processor": {
    "type": "TemplateProcessing",
    "single": [
      {
        "SpecialToken": {
          "id": "[SOS]",
          "type_id": 0
        }
      },
      {
        "Sequence": {
          "id": "A",
          "type_id": 0
        }
      },
      {
        "SpecialToken": {
          "id": "[EOS]",
          "type_id": 0
        }
      }
    ],
    "pair": [
      {
        "SpecialToken": {
          "id": "[SOS]",
          "type_id": 0
        }
      },
      {
        "Sequence": {
          "id": "A",
          "type_id": 0
        }
      },
      {
        "SpecialToken": {
          "id": "[EOS]",
          "type_id": 0
        }
      },
      {
        "SpecialToken": {
          "id": "[SOS]",
          "type_id": 0
        }
      },
      {
        "Sequence": {
          "id": "B",
          "type_id": 0
        }
      },
      {
        "SpecialToken": {
          "id": "[EOS]",
          "type_id": 0
        }
      }
    ],
    "special_tokens": {
      "[EOS]": {
        "id": "[EOS]",
        "ids": [
          3
        ],
        "tokens": [
          "[EOS]"
        ]
      },
      "[SOS]": {
        "id": "[SOS]",
        "ids": [
          2
        ],
        "tokens": [
          "[SOS]"
        ]
      }
    }
  },
  "decoder": {
    "type": "ByteLevel",
    "add_prefix_space": true,
    "trim_offsets": true,
    "use_regex": true
  },
  "model": {
    "type": "BPE",
    "dropout": null,
    "unk_token": "[UNK]",
    "continuing_subword_prefix": null,
    "end_of_word_suffix": null,
    "fuse_unk": false,
    "byte_fallback": false,
    "ignore_merges": false,
    "vocab": {
      "[PAD]": 0,
      "[UNK]": 1,
      "[SOS]": 2,
      "[EOS]": 3,
      "\u000f": 4,
      "\u0015": 5,
      "\u001a": 6,
      "\u001b": 7,
      "!": 8,
      "\"": 9,
      "#": 10,
      "$": 11,
      "%": 12,
      "&": 13,
      "'": 14,
      "(": 15,
      ")": 16,
      "*": 17,
      "+": 18,
      ",": 19,
      "-": 20,
      ".": 21,
      "/": 22,
      "0": 23,
      "1": 24,
      "2": 25,
      "3": 26,
      "4": 27,
      "5": 28,
      "6": 29,
      "7": 30,
      "8": 31,
      "9": 32,
      ":": 33,
      ";": 34,
      "<": 35,
      "=": 36,
      ">": 37,
      "?": 38,
      "@": 39,
      "A": 40,
      "B": 41,
      "C": 42,
      "D": 43,
      "E": 44,
      "F": 45,
      "G": 46,
      "H": 47,
      "I": 48,
      "J": 49,
      "K": 50,
      "L": 51,
      "M": 52,
      "N": 53,
      "O": 54,
      "P": 55,
      "Q": 56,
      "R": 57,
      "S": 58,
      "T": 59,
      "U": 60,
      "V": 61,
      "W": 62,
      "X": 63,
      "Y": 64,
      "Z": 65,
      "[": 66,
      "\\": 67,
      "]": 68,
      "^": 69,
      "_": 70,
      "`": 71,
      "a": 72,
      "b": 73,
      "c": 74,
      "d": 75,
      "e": 76,
      "f": 77,
      "g": 78,
      "h": 79,
      "i": 80,
      "j": 81,
      "k": 82,
      "l": 83,
      "m": 84,
      "n": 85,
      "o": 86,
      "p": 87,
      "q": 88,
      "r": 89,
      "s": 90,
      "t": 91,
      "u": 92,
      "v": 93,
      "w": 94,
      "x": 95,
      "y": 96,
      "z": 97,
      "{": 98,
      "|": 99,
      "}": 100,
      "~": 101,
      "": 102,
      "£": 103,
      "¥": 104,
      "§": 105,
      "©": 106,
      "«": 107,
      "­": 108,
      "®": 109,
      "°": 110,
      "±": 111,
      "²": 112,
      "³": 113,
      "µ": 114,
      "¶": 115,
      "·": 116,
      "¹": 117,
      "º": 118,
      "»": 119,
      "Å": 120,
      "Ç": 121,
      "È": 122,
      "É": 123,
      "Ö": 124,
      "×": 125,
      "Ø": 126,
      "Ù": 127,
      "Ü": 128,
      "à": 129,
      "á": 130,
      "â": 131,
      "ã": 132,
      "ä": 133,
      "å": 134,
      "æ": 135,
      "ç": 136,
      "è": 137,
      "é": 138,
      "ê": 139,
      "ë": 140,
      "ì": 141,
      "í": 142,
      "î": 143,
      "ï": 144,
      "ð": 145,
      "ñ": 146,
      "ò": 147,
      "ó": 148,
      "ô": 149,
      "õ": 150,
      "ö": 151,
      "÷": 152,
      "ø": 153,
      "ù": 154,
      "ú": 155,
      "ü": 156,
      "Ā": 157,
      "ā": 158,
      "ă": 159,
      "Ą": 160,
      "ą": 161,
      "ć": 162,
      "č": 163,
      "ď": 164,
      "ē": 165,
      "ĕ": 166,
      "ė": 167,
      "Ę": 168,
      "ę": 169,
      "Ě": 170,
      "ě": 171,
      "ģ": 172,
      "ī": 173,
      "ĭ": 174,
      "į": 175,
      "ı": 176,
      "ł": 177,
      "ń": 178,
      "ŋ": 179,
      "Ō": 180,
      "ō": 181,
      "Œ": 182,
      "œ": 183,
      "ř": 184,
      "Ś": 185,
      "ś": 186,
      "ş": 187,
      "š": 188,
      "ū": 189,
      "ů": 190,
      "Ÿ": 191,
      "ž": 192,
      "ǎ": 193,
      "ǐ": 194,
      "ǒ": 195,
      "ǔ": 196,
      "ǘ": 197,
      "ǚ": 198,
      "ș": 199,
      "ț": 200,
      "ɑ": 201,
      "ɔ": 202,
      "ə": 203,
      "ɚ": 204,
      "ɜ": 205,
      "ɡ": 206,
      "ɪ": 207,
      "ʃ": 208,
      "ʊ": 209,
      "ʌ": 210,
      "ʐ": 211,
      "ʒ": 212,
      "ˈ": 213,
      "ˋ": 214,
      "ˌ": 215,
      "ː": 216,
      "˙": 217,
      "˚": 218,
      "̀": 219,
      "́": 220,
      "̄": 221,
      "̅": 222,
      "Δ": 223,
      "Ο": 224,
      "Φ": 225,
      "Ω": 226,
      "α": 227,
      "β": 228,
      "γ": 229,
      "δ": 230,
      "ε": 231,
      "η": 232,
      "θ": 233,
      "ι": 234,
      "κ": 235,
      "λ": 236,
      "μ": 237,
      "ν": 238,
      "ξ": 239,
      "ο": 240,
      "π": 241,
      "ρ": 242,
      "ς": 243,
      "σ": 244,
      "τ": 245,
      "υ": 246,
      "φ": 247,
      "ω": 248,
      "ύ": 249,
      "А": 250,
      "Д": 251,
      "Е": 252,
      "Ж": 253,
      "И": 254,
      "Л": 255,
      "М": 256,
      "Н": 257,
      "О": 258,
      "П": 259,
      "С": 260,
      "Т": 261,
      "У": 262,
      "Ф": 263,
      "Х": 264,
      "Ц": 265,
      "Ш": 266,
      "Э": 267,
      "а": 268,
      "б": 269,
      "в": 270,
      "г": 271,
      "д": 272,
      "е": 273,
      "ж": 274,
      "з": 275,
      "и": 276,
      "й": 277,
      "к": 278,
      "л": 279,
      "м": 280,
      "н": 281,
      "о": 282,
      "п": 283,
      "р": 284,
      "с": 285,
      "т": 286,
      "у": 287,
      "ф": 288,
      "х": 289,
      "ц": 290,
      "ч": 291,
      "ш": 292,
      "щ": 293,
      "ы": 294,
      "ь": 295,
      "э": 296,
      "я": 297,
      "і": 298,
      "ї": 299,
      "ј": 300,
      "њ": 301,
      "ғ": 302,
      "Қ": 303,
      "қ": 304,
      "ң": 305,
      "ү": 306,
      "ұ": 307,
      "ә": 308,
      "Ө": 309,
      "ө": 310,
      "ְ": 311,
      "ִ": 312,
      "ֵ": 313,
      "ָ": 314,
      "ׂ": 315,
      "א": 316,
      "ב": 317,
      "ג": 318,
      "ד": 319,
      "ה": 320,
      "ו": 321,
      "ז": 322,
      "ח": 323,
      "ט": 324,
      "י": 325,
      "ך": 326,
      "כ": 327,
      "ל": 328,
      "ם": 329,
      "מ": 330,
      "ן": 331,
      "נ": 332,
      "ס": 333,
      "ע": 334,
      "ף": 335,
      "פ": 336,
      "צ": 337,
      "ק": 338,
      "ר": 339,
      "ש": 340,
      "ת": 341,
      "ء": 342,
      "آ": 343,
      "أ": 344,
      "إ": 345,
      "ئ": 346,
      "ا": 347,
      "ب": 348,
      "ة": 349,
      "ت": 350,
      "ث": 351,
      "ج": 352,
      "ح": 353,
      "خ": 354,
      "د": 355,
      "ذ": 356,
      "ر": 357,
      "ز": 358,
      "س": 359,
      "ش": 360,
      "ص": 361,
      "ض": 362,
      "ط": 363,
      "ع": 364,
      "غ": 365,
      "ف": 366,
      "ق": 367,
      "ك": 368,
      "ل": 369,
      "م": 370,
      "ن": 371,
      "ه": 372,
      "و": 373,
      "ى": 374,
      "ي": 375,
      "ً": 376,
      "ّ": 377,
      "پ": 378,
      "ځ": 379,
      "چ": 380,
      "ړ": 381,
      "ږ": 382,
      "ژ": 383,
      "ښ": 384,
      "ک": 385,
      "ی": 386,
      "ې": 387,
      "ۛ": 388,
      "ं": 389,
      "इ": 390,
      "क": 391,
      "ख": 392,
      "घ": 393,
      "च": 394,
      "छ": 395,
      "ज": 396,
      "ट": 397,
      "ठ": 398,
      "ड": 399,
      "ण": 400,
      "त": 401,
      "थ": 402,
      "द": 403,
      "ध": 404,
      "न": 405,
      "प": 406,
      "ब": 407,
      "य": 408,
      "र": 409,
      "ल": 410,
      "व": 411,
      "श": 412,
      "स": 413,
      "ह": 414,
      "ा": 415,
      "ि": 416,
      "ी": 417,
      "ु": 418,
      "े": 419,
      "ै": 420,
      "ो": 421,
      "्": 422,
      "।": 423,
      "ক": 424,
      "জ": 425,
      "ট": 426,
      "ণ": 427,
      "ত": 428,
      "দ": 429,
      "ন": 430,
      "প": 431,
      "র": 432,
      "া": 433,
      "ি": 434,
      "ু": 435,
      "ে": 436,
      "ം": 437,
      "ഇ": 438,
      "ന": 439,
      "പ": 440,
      "ല": 441,
      "ള": 442,
      "ഴ": 443,
      "ാ": 444,
      "ീ": 445,
      "ു": 446,
      "െ": 447,
      "ോ": 448,
      "്": 449,
      "ก": 450,
      "ง": 451,
      "ต": 452,
      "น": 453,
      "ร": 454,
      "ว": 455,
      "ส": 456,
      "ั": 457,
      "า": 458,
      "์": 459,
      "๑": 460,
      "ღ": 461,
      "ᅲ": 462,
      "᪂": 463,
      "ḥ": 464,
      "ṃ": 465,
      "ṇ": 466,
      "ṛ": 467,
      "ṣ": 468,
      "ṭ": 469,
      "ả": 470,
      "ῦ": 471,
      "​": 472,
      "‌": 473,
      "‍": 474,
      "‎": 475,
      "‐": 476,
      "–": 477,
      "—": 478,
      "―": 479,
      "‖": 480,
      "‘": 481,
      "’": 482,
      "“": 483,
      "”": 484,
      "„": 485,
      "•": 486,
      "…": 487,
      "‧": 488,
      "‬": 489,
      "‭": 490,
      "‮": 491,
      "‰": 492,
      "′": 493,
      "″": 494,
      "‹": 495,
      "›": 496,
      "※": 497,
      "⁡": 498,
      "⁰": 499,
      "⁵": 500,
      "⁺": 501,
      "⁻": 502,
      "₀": 503,
      "₁": 504,
      "₂": 505,
      "₃": 506,
      "₄": 507,
      "€": 508,
      "⃣": 509,
      "℃": 510,
      "℉": 511,
      "™": 512,
      "Ⅰ": 513,
      "Ⅱ": 514,
      "Ⅲ": 515,
      "Ⅳ": 516,
      "Ⅴ": 517,
      "Ⅵ": 518,
      "Ⅷ": 519,
      "←": 520,
      "↑": 521,
      "→": 522,
      "↓": 523,
      "↩": 524,
      "⇌": 525,
      "∁": 526,
      "∅": 527,
      "∆": 528,
      "∈": 529,
      "∏": 530,
      "∑": 531,
      "−": 532,
      "∕": 533,
      "∙": 534,
      "√": 535,
      "∞": 536,
      "∟": 537,
      "∠": 538,
      "∣": 539,
      "∥": 540,
      "∩": 541,
      "∪": 542,
      "∴": 543,
      "∵": 544,
      "∶": 545,
      "∼": 546,
      "∽": 547,
      "≈": 548,
      "≌": 549,
      "≠": 550,
      "≡": 551,
      "≤": 552,
      "≥": 553,
      "≦": 554,
      "≧": 555,
      "⊂": 556,
      "⊙": 557,
      "⊥": 558,
      "⋅": 559,
      "⋯": 560,
      "⏩": 561,
      "①": 562,
      "②": 563,
      "③": 564,
      "④": 565,
      "⑤": 566,
      "⑥": 567,
      "⑦": 568,
      "⑧": 569,
      "⑨": 570,
      "⑩": 571,
      "⑪": 572,
      "⑫": 573,
      "⑬": 574,
      "⑰": 575,
      "⑴": 576,
      "⑵": 577,
      "⑶": 578,
      "⑷": 579,
      "⑸": 580,
      "⑹": 581,
      "⑺": 582,
      "⑻": 583,
      "⒀": 584,
      "⒄": 585,
      "⒅": 586,
      "⒆": 587,
      "⒇": 588,
      "⒉": 589,
      "⒊": 590,
      "⒋": 591,
      "⒍": 592,
      "─": 593,
      "│": 594,
      "┦": 595,
      "═": 596,
      "▌": 597,
      "▍": 598,
      "▎": 599,
      "▏": 600,
      "▓": 601,
      "▕": 602,
      "■": 603,
      "□": 604,
      "▪": 605,
      "▭": 606,
      "▱": 607,
      "▲": 608,
      "△": 609,
      "▶": 610,
      "▷": 611,
      "▸": 612,
      "►": 613,
      "▼": 614,
      "▽": 615,
      "◁": 616,
      "◆": 617,
      "◇": 618,
      "◉": 619,
      "◊": 620,
      "○": 621,
      "◎": 622,
      "●": 623,
      "◐": 624,
      "◡": 625,
      "◤": 626,
      "◼": 627,
      "★": 628,
      "☆": 629,
      "☋": 630,
      "☑": 631,
      "☝": 632,
      "☞": 633,
      "☟": 634,
      "☯": 635,
      "♎": 636,
      "♠": 637,
      "♣": 638,
      "♦": 639,
      "♯": 640,
      "⚠": 641,
      "✅": 642,
      "✈": 643,
      "✍": 644,
      "✎": 645,
      "✓": 646,
      "✔": 647,
      "✖": 648,
      "✘": 649,
      "✚": 650,
      "✦": 651,
      "✧": 652,
      "✨": 653,
      "✪": 654,
      "✲": 655,
      "✿": 656,
      "❀": 657,
      "❂": 658,
      "❎": 659,
      "❏": 660,
      "❕": 661,
      "❖": 662,
      "❗": 663,
      "❤": 664,
      "❮": 665,
      "❯": 666,
      "❶": 667,
      "❷": 668,
      "❸": 669,
      "❹": 670,
      "❺": 671,
      "❽": 672,
      "➔": 673,
      "➡": 674,
      "➢": 675,
      "➤": 676,
      "⠼": 677,
      "⩽": 678,
      "⩾": 679,
      "⬆": 680,
      "⭐": 681,
      "⻓": 682,
      "⼀": 683,
      "⼉": 684,
      "⼤": 685,
      "⼦": 686,
      "⼩": 687,
      "⼯": 688,
      "⼼": 689,
      "⽂": 690,
      "⽅": 691,
      "⽣": 692,
      "⽤": 693,
      "⽬": 694,
      "⽶": 695,
      "⾜": 696,
      "⾦": 697,
      "⾸": 698,
      "⾼": 699,
      "、": 700,
      "。": 701,
      "〇": 702,
      "〈": 703,
      "〉": 704,
      "《": 705,
      "》": 706,
      "「": 707,
      "」": 708,
      "『": 709,
      "』": 710,
      "【": 711,
      "】": 712,
      "〒": 713,
      "〓": 714,
      "〔": 715,
      "〕": 716,
      "〖": 717,
      "〗": 718,
      "〜": 719,
      "〝": 720,
      "〞": 721,
      "あ": 722,
      "い": 723,
      "う": 724,
      "え": 725,
      "お": 726,
      "か": 727,
      "が": 728,
      "き": 729,
      "く": 730,
      "け": 731,
      "げ": 732,
      "こ": 733,
      "ご": 734,
      "さ": 735,
      "し": 736,
      "じ": 737,
      "す": 738,
      "ず": 739,
      "せ": 740,
      "そ": 741,
      "た": 742,
      "だ": 743,
      "ち": 744,
      "っ": 745,
      "つ": 746,
      "づ": 747,
      "て": 748,
      "で": 749,
      "と": 750,
      "ど": 751,
      "な": 752,
      "に": 753,
      "ね": 754,
      "の": 755,
      "は": 756,
      "ば": 757,
      "ぶ": 758,
      "べ": 759,
      "ぼ": 760,
      "ま": 761,
      "み": 762,
      "む": 763,
      "め": 764,
      "も": 765,
      "や": 766,
      "ゅ": 767,
      "よ": 768,
      "ら": 769,
      "り": 770,
      "る": 771,
      "れ": 772,
      "ろ": 773,
      "わ": 774,
      "を": 775,
      "ん": 776,
      "ア": 777,
      "ィ": 778,
      "イ": 779,
      "ェ": 780,
      "エ": 781,
      "ォ": 782,
      "オ": 783,
      "カ": 784,
      "ク": 785,
      "グ": 786,
      "ケ": 787,
      "ゲ": 788,
      "コ": 789,
      "サ": 790,
      "シ": 791,
      "ジ": 792,
      "ス": 793,
      "ズ": 794,
      "セ": 795,
      "タ": 796,
      "ダ": 797,
      "チ": 798,
      "ッ": 799,
      "デ": 800,
      "ト": 801,
      "ド": 802,
      "ナ": 803,
      "ニ": 804,
      "ネ": 805,
      "ノ": 806,
      "バ": 807,
      "ビ": 808,
      "ピ": 809,
      "フ": 810,
      "プ": 811,
      "ベ": 812,
      "ボ": 813,
      "ポ": 814,
      "マ": 815,
      "ム": 816,
      "メ": 817,
      "ャ": 818,
      "ュ": 819,
      "ョ": 820,
      "ラ": 821,
      "リ": 822,
      "ル": 823,
      "レ": 824,
      "ロ": 825,
      "ン": 826,
      "・": 827,
      "ー": 828,
      "ㄇ": 829,
      "ㄎ": 830,
      "ㄗ": 831,
      "ㄧ": 832,
      "ㄨ": 833,
      "ㄹ": 834,
      "ㅂ": 835,
      "ㅇ": 836,
      "㈠": 837,
      "㈡": 838,
      "㈩": 839,
      "㎜": 840,
      "㎡": 841,
      "㖞": 842,
      "㫜": 843,
      "䒺": 844,
      "䧟": 845,
      "䨻": 846,
      "䶮": 847,
      "一": 848,
      "丁": 849,
      "七": 850,
      "万": 851,
      "丈": 852,
      "三": 853,
      "上": 854,
      "下": 855,
      "不": 856,
      "与": 857,
      "丐": 858,
      "丑": 859,
      "专": 860,
      "且": 861,
      "丕": 862,
      "世": 863,
      "丘": 864,
      "丙": 865,
      "业": 866,
      "丛": 867,
      "东": 868,
      "丝": 869,
      "丞": 870,
      "丟": 871,
      "丢": 872,
      "两": 873,
      "严": 874,
      "並": 875,
      "丧": 876,
      "丨": 877,
      "个": 878,
      "丫": 879,
      "中": 880,
      "丰": 881,
      "串": 882,
      "临": 883,
      "丶": 884,
      "丸": 885,
      "丹": 886,
      "为": 887,
      "主": 888,
      "丽": 889,
      "举": 890,
      "乃": 891,
      "久": 892,
      "么": 893,
      "义": 894,
      "之": 895,
      "乌": 896,
      "乍": 897,
      "乎": 898,
      "乏": 899,
      "乐": 900,
      "乒": 901,
      "乓": 902,
      "乔": 903,
      "乖": 904,
      "乘": 905,
      "乙": 906,
      "九": 907,
      "乞": 908,
      "也": 909,
      "习": 910,
      "乡": 911,
      "书": 912,
      "买": 913,
      "乱": 914,
      "乳": 915,
      "乾": 916,
      "亂": 917,
      "了": 918,
      "予": 919,
      "争": 920,
      "亊": 921,
      "事": 922,
      "二": 923,
      "于": 924,
      "亏": 925,
      "云": 926,
      "互": 927,
      "亓": 928,
      "五": 929,
      "井": 930,
      "亘": 931,
      "亚": 932,
      "些": 933,
      "亞": 934,
      "亟": 935,
      "亡": 936,
      "亢": 937,
      "交": 938,
      "亥": 939,
      "亦": 940,
      "产": 941,
      "亨": 942,
      "亩": 943,
      "享": 944,
      "京": 945,
      "亭": 946,
      "亮": 947,
      "亲": 948,
      "亳": 949,
      "亵": 950,
      "亶": 951,
      "人": 952,
      "亻": 953,
      "亿": 954,
      "什": 955,
      "仁": 956,
      "仃": 957,
      "仄": 958,
      "仅": 959,
      "仆": 960,
      "仇": 961,
      "仉": 962,
      "今": 963,
      "介": 964,
      "仍": 965,
      "从": 966,
      "仑": 967,
      "仓": 968,
      "仔": 969,
      "仕": 970,
      "他": 971,
      "仗": 972,
      "付": 973,
      "仙": 974,
      "仝": 975,
      "仞": 976,
      "仟": 977,
      "仡": 978,
      "代": 979,
      "令": 980,
      "以": 981,
      "仨": 982,
      "仪": 983,
      "仫": 984,
      "们": 985,
      "仮": 986,
      "仰": 987,
      "仲": 988,
      "仳": 989,
      "件": 990,
      "价": 991,
      "任": 992,
      "份": 993,
      "仿": 994,
      "企": 995,
      "伃": 996,
      "伉": 997,
      "伊": 998,
      "伋": 999,
      "伍": 1000,
      "伎": 1001,
      "伏": 1002,
      "伐": 1003,
      "休": 1004,
      "众": 1005,
      "优": 1006,
      "伙": 1007,
      "会": 1008,
      "伞": 1009,
      "伟": 1010,
      "传": 1011,
      "伢": 1012,
      "伤": 1013,
      "伦": 1014,
      "伪": 1015,
      "伫": 1016,
      "伯": 1017,
      "估": 1018,
      "伴": 1019,
      "伶": 1020,
      "伸": 1021,
      "伺": 1022,
      "似": 1023,
      "伽": 1024,
      "佃": 1025,
      "但": 1026,
      "佈": 1027,
      "位": 1028,
      "低": 1029,
      "住": 1030,
      "佐": 1031,
      "佑": 1032,
      "体": 1033,
      "佔": 1034,
      "何": 1035,
      "佗": 1036,
      "佘": 1037,
      "余": 1038,
      "佚": 1039,
      "佛": 1040,
      "作": 1041,
      "佝": 1042,
      "佟": 1043,
      "你": 1044,
      "佣": 1045,
      "佤": 1046,
      "佩": 1047,
      "佬": 1048,
      "佯": 1049,
      "佰": 1050,
      "佳": 1051,
      "佶": 1052,
      "佺": 1053,
      "佼": 1054,
      "佾": 1055,
      "使": 1056,
      "侁": 1057,
      "侃": 1058,
      "侄": 1059,
      "來": 1060,
      "侈": 1061,
      "例": 1062,
      "侍": 1063,
      "侏": 1064,
      "侗": 1065,
      "侘": 1066,
      "供": 1067,
      "依": 1068,
      "侠": 1069,
      "価": 1070,
      "侣": 1071,
      "侥": 1072,
      "侦": 1073,
      "侧": 1074,
      "侨": 1075,
      "侪": 1076,
      "侬": 1077,
      "侮": 1078,
      "侯": 1079,
      "侵": 1080,
      "侶": 1081,
      "便": 1082,
      "係": 1083,
      "促": 1084,
      "俄": 1085,
      "俅": 1086,
      "俊": 1087,
      "俎": 1088,
      "俏": 1089,
      "俐": 1090,
      "俑": 1091,
      "俗": 1092,
      "俘": 1093,
      "俚": 1094,
      "保": 1095,
      "俞": 1096,
      "俟": 1097,
      "信": 1098,
      "俨": 1099,
      "俩": 1100,
      "俪": 1101,
      "俫": 1102,
      "俬": 1103,
      "俭": 1104,
      "修": 1105,
      "俯": 1106,
      "俱": 1107,
      "俶": 1108,
      "俸": 1109,
      "俺": 1110,
      "俾": 1111,
      "個": 1112,
      "倍": 1113,
      "倏": 1114,
      "們": 1115,
      "倒": 1116,
      "倓": 1117,
      "倔": 1118,
      "倘": 1119,
      "候": 1120,
      "倚": 1121,
      "倜": 1122,
      "借": 1123,
      "倡": 1124,
      "倥": 1125,
      "倦": 1126,
      "倩": 1127,
      "倪": 1128,
      "倫": 1129,
      "倬": 1130,
      "倭": 1131,
      "债": 1132,
      "值": 1133,
      "倾": 1134,
      "偃": 1135,
      "假": 1136,
      "偈": 1137,
      "偉": 1138,
      "偌": 1139,
      "偎": 1140,
      "偏": 1141,
      "做": 1142,
      "停": 1143,
      "健": 1144,
      "偬": 1145,
      "側": 1146,
      "偶": 1147,
      "偷": 1148,
      "偻": 1149,
      "偿": 1150,
      "傅": 1151,
      "傍": 1152,
      "備": 1153,
      "傢": 1154,
      "傣": 1155,
      "傥": 1156,
      "储": 1157,
      "傩": 1158,
      "催": 1159,
      "傭": 1160,
      "傲": 1161,
      "傳": 1162,
      "債": 1163,
      "傷": 1164,
      "傻": 1165,
      "傾": 1166,
      "僅": 1167,
      "働": 1168,
      "僎": 1169,
      "像": 1170,
      "僖": 1171,
      "僚": 1172,
      "僧": 1173,
      "僭": 1174,
      "僵": 1175,
      "價": 1176,
      "僻": 1177,
      "儀": 1178,
      "億": 1179,
      "儅": 1180,
      "儆": 1181,
      "儋": 1182,
      "儒": 1183,
      "儕": 1184,
      "儘": 1185,
      "優": 1186,
      "儲": 1187,
      "儿": 1188,
      "兀": 1189,
      "允": 1190,
      "元": 1191,
      "兄": 1192,
      "充": 1193,
      "兆": 1194,
      "先": 1195,
      "光": 1196,
      "克": 1197,
      "免": 1198,
      "児": 1199,
      "兑": 1200,
      "兒": 1201,
      "兔": 1202,
      "兖": 1203,
      "党": 1204,
      "兜": 1205,
      "兢": 1206,
      "入": 1207,
      "內": 1208,
      "全": 1209,
      "兩": 1210,
      "八": 1211,
      "公": 1212,
      "六": 1213,
      "兮": 1214,
      "兰": 1215,
      "共": 1216,
      "关": 1217,
      "兴": 1218,
      "兵": 1219,
      "其": 1220,
      "具": 1221,
      "典": 1222,
      "兹": 1223,
      "养": 1224,
      "兼": 1225,
      "兽": 1226,
      "冀": 1227,
      "内": 1228,
      "冈": 1229,
      "冉": 1230,
      "冊": 1231,
      "册": 1232,
      "再": 1233,
      "冏": 1234,
      "冒": 1235,
      "冕": 1236,
      "冗": 1237,
      "写": 1238,
      "军": 1239,
      "农": 1240,
      "冠": 1241,
      "冢": 1242,
      "冤": 1243,
      "冥": 1244,
      "冬": 1245,
      "冯": 1246,
      "冰": 1247,
      "冲": 1248,
      "决": 1249,
      "况": 1250,
      "冶": 1251,
      "冷": 1252,
      "冻": 1253,
      "冼": 1254,
      "冽": 1255,
      "净": 1256,
      "凄": 1257,
      "准": 1258,
      "凇": 1259,
      "凈": 1260,
      "凉": 1261,
      "凋": 1262,
      "凌": 1263,
      "凍": 1264,
      "减": 1265,
      "凑": 1266,
      "凛": 1267,
      "凝": 1268,
      "几": 1269,
      "凡": 1270,
      "凤": 1271,
      "凭": 1272,
      "凯": 1273,
      "凰": 1274,
      "凱": 1275,
      "凳": 1276,
      "凶": 1277,
      "凸": 1278,
      "凹": 1279,
      "出": 1280,
      "击": 1281,
      "凼": 1282,
      "函": 1283,
      "凿": 1284,
      "刀": 1285,
      "刁": 1286,
      "刃": 1287,
      "分": 1288,
      "切": 1289,
      "刊": 1290,
      "刋": 1291,
      "刍": 1292,
      "刑": 1293,
      "划": 1294,
      "刖": 1295,
      "列": 1296,
      "刘": 1297,
      "则": 1298,
      "刚": 1299,
      "创": 1300,
      "初": 1301,
      "删": 1302,
      "判": 1303,
      "別": 1304,
      "刨": 1305,
      "利": 1306,
      "刪": 1307,
      "别": 1308,
      "刮": 1309,
      "到": 1310,
      "制": 1311,
      "刷": 1312,
      "券": 1313,
      "刹": 1314,
      "刺": 1315,
      "刻": 1316,
      "刽": 1317,
      "刿": 1318,
      "剁": 1319,
      "剂": 1320,
      "剃": 1321,
      "剅": 1322,
      "則": 1323,
      "削": 1324,
      "剌": 1325,
      "前": 1326,
      "剎": 1327,
      "剐": 1328,
      "剑": 1329,
      "剔": 1330,
      "剖": 1331,
      "剛": 1332,
      "剜": 1333,
      "剡": 1334,
      "剥": 1335,
      "剧": 1336,
      "剩": 1337,
      "剪": 1338,
      "副": 1339,
      "割": 1340,
      "創": 1341,
      "剸": 1342,
      "剽": 1343,
      "剿": 1344,
      "劃": 1345,
      "劇": 1346,
      "劈": 1347,
      "劉": 1348,
      "劍": 1349,
      "劑": 1350,
      "力": 1351,
      "劝": 1352,
      "办": 1353,
      "功": 1354,
      "加": 1355,
      "务": 1356,
      "劣": 1357,
      "动": 1358,
      "助": 1359,
      "努": 1360,
      "劫": 1361,
      "劭": 1362,
      "励": 1363,
      "劲": 1364,
      "劳": 1365,
      "労": 1366,
      "効": 1367,
      "劼": 1368,
      "劾": 1369,
      "势": 1370,
      "勃": 1371,
      "勇": 1372,
      "勉": 1373,
      "勋": 1374,
      "勐": 1375,
      "勒": 1376,
      "動": 1377,
      "勖": 1378,
      "勘": 1379,
      "務": 1380,
      "勝": 1381,
      "勞": 1382,
      "募": 1383,
      "勠": 1384,
      "勢": 1385,
      "勣": 1386,
      "勤": 1387,
      "勰": 1388,
      "勵": 1389,
      "勺": 1390,
      "勾": 1391,
      "勿": 1392,
      "匀": 1393,
      "包": 1394,
      "匆": 1395,
      "匈": 1396,
      "匊": 1397,
      "匍": 1398,
      "匏": 1399,
      "匐": 1400,
      "匕": 1401,
      "化": 1402,
      "北": 1403,
      "匙": 1404,
      "匜": 1405,
      "匝": 1406,
      "匠": 1407,
      "匡": 1408,
      "匣": 1409,
      "匪": 1410,
      "匮": 1411,
      "匯": 1412,
      "匹": 1413,
      "区": 1414,
      "医": 1415,
      "匾": 1416,
      "匿": 1417,
      "區": 1418,
      "十": 1419,
      "千": 1420,
      "卅": 1421,
      "升": 1422,
      "午": 1423,
      "卉": 1424,
      "半": 1425,
      "华": 1426,
      "协": 1427,
      "卑": 1428,
      "卒": 1429,
      "卓": 1430,
      "協": 1431,
      "单": 1432,
      "卖": 1433,
      "南": 1434,
      "単": 1435,
      "博": 1436,
      "卜": 1437,
      "卞": 1438,
      "卟": 1439,
      "占": 1440,
      "卡": 1441,
      "卢": 1442,
      "卤": 1443,
      "卦": 1444,
      "卧": 1445,
      "卫": 1446,
      "卭": 1447,
      "卯": 1448,
      "印": 1449,
      "危": 1450,
      "即": 1451,
      "却": 1452,
      "卵": 1453,
      "卷": 1454,
      "卸": 1455,
      "卻": 1456,
      "卿": 1457,
      "厂": 1458,
      "厄": 1459,
      "厅": 1460,
      "历": 1461,
      "厉": 1462,
      "压": 1463,
      "厌": 1464,
      "厕": 1465,
      "厘": 1466,
      "厚": 1467,
      "厝": 1468,
      "原": 1469,
      "厢": 1470,
      "厥": 1471,
      "厦": 1472,
      "厨": 1473,
      "厩": 1474,
      "厭": 1475,
      "厮": 1476,
      "厳": 1477,
      "厷": 1478,
      "去": 1479,
      "县": 1480,
      "参": 1481,
      "參": 1482,
      "又": 1483,
      "叉": 1484,
      "及": 1485,
      "友": 1486,
      "双": 1487,
      "反": 1488,
      "发": 1489,
      "叔": 1490,
      "取": 1491,
      "受": 1492,
      "变": 1493,
      "叙": 1494,
      "叛": 1495,
      "叟": 1496,
      "叠": 1497,
      "叡": 1498,
      "叢": 1499,
      "口": 1500,
      "古": 1501,
      "句": 1502,
      "另": 1503,
      "叨": 1504,
      "叩": 1505,
      "只": 1506,
      "叫": 1507,
      "召": 1508,
      "叭": 1509,
      "叮": 1510,
      "可": 1511,
      "台": 1512,
      "叱": 1513,
      "史": 1514,
      "右": 1515,
      "叵": 1516,
      "叶": 1517,
      "号": 1518,
      "司": 1519,
      "叹": 1520,
      "叻": 1521,
      "叼": 1522,
      "叽": 1523,
      "吁": 1524,
      "吃": 1525,
      "各": 1526,
      "吆": 1527,
      "合": 1528,
      "吉": 1529,
      "吊": 1530,
      "吋": 1531,
      "同": 1532,
      "名": 1533,
      "后": 1534,
      "吏": 1535,
      "吐": 1536,
      "向": 1537,
      "吒": 1538,
      "吓": 1539,
      "吕": 1540,
      "吗": 1541,
      "君": 1542,
      "吝": 1543,
      "吞": 1544,
      "吟": 1545,
      "吠": 1546,
      "吡": 1547,
      "否": 1548,
      "吧": 1549,
      "吨": 1550,
      "吩": 1551,
      "含": 1552,
      "听": 1553,
      "吭": 1554,
      "吮": 1555,
      "启": 1556,
      "吱": 1557,
      "吲": 1558,
      "吳": 1559,
      "吴": 1560,
      "吵": 1561,
      "吸": 1562,
      "吹": 1563,
      "吻": 1564,
      "吼": 1565,
      "吾": 1566,
      "呀": 1567,
      "呃": 1568,
      "呆": 1569,
      "呈": 1570,
      "告": 1571,
      "呋": 1572,
      "呐": 1573,
      "呓": 1574,
      "呕": 1575,
      "呗": 1576,
      "员": 1577,
      "呛": 1578,
      "呜": 1579,
      "呢": 1580,
      "呤": 1581,
      "呦": 1582,
      "周": 1583,
      "呬": 1584,
      "呯": 1585,
      "呱": 1586,
      "呲": 1587,
      "味": 1588,
      "呵": 1589,
      "呻": 1590,
      "呼": 1591,
      "命": 1592,
      "咀": 1593,
      "咄": 1594,
      "咆": 1595,
      "咋": 1596,
      "和": 1597,
      "咎": 1598,
      "咏": 1599,
      "咐": 1600,
      "咒": 1601,
      "咔": 1602,
      "咕": 1603,
      "咖": 1604,
      "咘": 1605,
      "咙": 1606,
      "咚": 1607,
      "咛": 1608,
      "咝": 1609,
      "咣": 1610,
      "咤": 1611,
      "咦": 1612,
      "咧": 1613,
      "咨": 1614,
      "咩": 1615,
      "咪": 1616,
      "咫": 1617,
      "咬": 1618,
      "咯": 1619,
      "咱": 1620,
      "咲": 1621,
      "咳": 1622,
      "咸": 1623,
      "咻": 1624,
      "咽": 1625,
      "咿": 1626,
      "哀": 1627,
      "品": 1628,
      "哄": 1629,
      "哆": 1630,
      "哇": 1631,
      "哈": 1632,
      "哉": 1633,
      "哌": 1634,
      "响": 1635,
      "哎": 1636,
      "哑": 1637,
      "哒": 1638,
      "哗": 1639,
      "哙": 1640,
      "哚": 1641,
      "哞": 1642,
      "哟": 1643,
      "員": 1644,
      "哥": 1645,
      "哦": 1646,
      "哧": 1647,
      "哨": 1648,
      "哩": 1649,
      "哪": 1650,
      "哭": 1651,
      "哮": 1652,
      "哲": 1653,
      "哺": 1654,
      "哼": 1655,
      "哽": 1656,
      "唁": 1657,
      "唆": 1658,
      "唇": 1659,
      "唉": 1660,
      "唏": 1661,
      "唐": 1662,
      "唑": 1663,
      "唔": 1664,
      "唠": 1665,
      "唢": 1666,
      "唤": 1667,
      "唧": 1668,
      "唬": 1669,
      "售": 1670,
      "唯": 1671,
      "唱": 1672,
      "唳": 1673,
      "唷": 1674,
      "唾": 1675,
      "唿": 1676,
      "啁": 1677,
      "啃": 1678,
      "啄": 1679,
      "商": 1680,
      "啉": 1681,
      "啊": 1682,
      "問": 1683,
      "啕": 1684,
      "啖": 1685,
      "啜": 1686,
      "啞": 1687,
      "啟": 1688,
      "啡": 1689,
      "啤": 1690,
      "啥": 1691,
      "啦": 1692,
      "啧": 1693,
      "啪": 1694,
      "啬": 1695,
      "啮": 1696,
      "啰": 1697,
      "啶": 1698,
      "啸": 1699,
      "啻": 1700,
      "啼": 1701,
      "啾": 1702,
      "喀": 1703,
      "喁": 1704,
      "喂": 1705,
      "喃": 1706,
      "善": 1707,
      "喆": 1708,
      "喇": 1709,
      "喉": 1710,
      "喊": 1711,
      "喑": 1712,
      "喔": 1713,
      "喘": 1714,
      "喙": 1715,
      "喜": 1716,
      "喝": 1717,
      "喟": 1718,
      "喧": 1719,
      "喪": 1720,
      "單": 1721,
      "喱": 1722,
      "喳": 1723,
      "喵": 1724,
      "営": 1725,
      "喷": 1726,
      "喹": 1727,
      "喻": 1728,
      "喽": 1729,
      "喾": 1730,
      "嗅": 1731,
      "嗎": 1732,
      "嗑": 1733,
      "嗒": 1734,
      "嗓": 1735,
      "嗔": 1736,
      "嗖": 1737,
      "嗜": 1738,
      "嗝": 1739,
      "嗞": 1740,
      "嗟": 1741,
      "嗡": 1742,
      "嗣": 1743,
      "嗤": 1744,
      "嗥": 1745,
      "嗦": 1746,
      "嗨": 1747,
      "嗪": 1748,
      "嗯": 1749,
      "嗲": 1750,
      "嗳": 1751,
      "嗷": 1752,
      "嗽": 1753,
      "嘀": 1754,
      "嘈": 1755,
      "嘉": 1756,
      "嘌": 1757,
      "嘎": 1758,
      "嘔": 1759,
      "嘗": 1760,
      "嘘": 1761,
      "嘚": 1762,
      "嘛": 1763,
      "嘟": 1764,
      "嘢": 1765,
      "嘣": 1766,
      "嘧": 1767,
      "嘭": 1768,
      "嘱": 1769,
      "嘲": 1770,
      "嘴": 1771,
      "嘶": 1772,
      "嘹": 1773,
      "嘻": 1774,
      "嘿": 1775,
      "噁": 1776,
      "噌": 1777,
      "噎": 1778,
      "噔": 1779,
      "噗": 1780,
      "噘": 1781,
      "噙": 1782,
      "噜": 1783,
      "噢": 1784,
      "噤": 1785,
      "器": 1786,
      "噩": 1787,
      "噪": 1788,
      "噫": 1789,
      "噬": 1790,
      "噱": 1791,
      "噶": 1792,
      "噸": 1793,
      "噻": 1794,
      "噼": 1795,
      "嚇": 1796,
      "嚎": 1797,
      "嚏": 1798,
      "嚓": 1799,
      "嚣": 1800,
      "嚮": 1801,
      "嚯": 1802,
      "嚴": 1803,
      "嚷": 1804,
      "嚼": 1805,
      "囉": 1806,
      "囊": 1807,
      "囔": 1808,
      "囘": 1809,
      "囚": 1810,
      "四": 1811,
      "囝": 1812,
      "回": 1813,
      "囟": 1814,
      "因": 1815,
      "囡": 1816,
      "团": 1817,
      "囤": 1818,
      "囧": 1819,
      "囫": 1820,
      "园": 1821,
      "囯": 1822,
      "困": 1823,
      "囱": 1824,
      "围": 1825,
      "囵": 1826,
      "固": 1827,
      "国": 1828,
      "图": 1829,
      "囿": 1830,
      "圃": 1831,
      "圆": 1832,
      "圈": 1833,
      "國": 1834,
      "圍": 1835,
      "圐": 1836,
      "園": 1837,
      "圓": 1838,
      "圖": 1839,
      "團": 1840,
      "圙": 1841,
      "圜": 1842,
      "土": 1843,
      "圣": 1844,
      "在": 1845,
      "圩": 1846,
      "圪": 1847,
      "圭": 1848,
      "圮": 1849,
      "地": 1850,
      "圳": 1851,
      "场": 1852,
      "圻": 1853,
      "圾": 1854,
      "址": 1855,
      "坂": 1856,
      "均": 1857,
      "坊": 1858,
      "坍": 1859,
      "坎": 1860,
      "坏": 1861,
      "坐": 1862,
      "坑": 1863,
      "块": 1864,
      "坚": 1865,
      "坛": 1866,
      "坜": 1867,
      "坝": 1868,
      "坞": 1869,
      "坟": 1870,
      "坠": 1871,
      "坡": 1872,
      "坤": 1873,
      "坦": 1874,
      "坨": 1875,
      "坩": 1876,
      "坪": 1877,
      "坭": 1878,
      "坯": 1879,
      "坳": 1880,
      "坷": 1881,
      "坻": 1882,
      "垂": 1883,
      "垃": 1884,
      "垄": 1885,
      "垅": 1886,
      "型": 1887,
      "垌": 1888,
      "垒": 1889,
      "垛": 1890,
      "垠": 1891,
      "垢": 1892,
      "垣": 1893,
      "垦": 1894,
      "垩": 1895,
      "垫": 1896,
      "垭": 1897,
      "垮": 1898,
      "垯": 1899,
      "垱": 1900,
      "垲": 1901,
      "垵": 1902,
      "埂": 1903,
      "埃": 1904,
      "埇": 1905,
      "埈": 1906,
      "埋": 1907,
      "城": 1908,
      "埏": 1909,
      "埔": 1910,
      "埙": 1911,
      "埚": 1912,
      "域": 1913,
      "埠": 1914,
      "埭": 1915,
      "埮": 1916,
      "埴": 1917,
      "執": 1918,
      "埸": 1919,
      "培": 1920,
      "基": 1921,
      "堂": 1922,
      "堃": 1923,
      "堅": 1924,
      "堆": 1925,
      "堇": 1926,
      "堉": 1927,
      "堑": 1928,
      "堕": 1929,
      "堡": 1930,
      "堤": 1931,
      "堪": 1932,
      "堯": 1933,
      "堰": 1934,
      "報": 1935,
      "場": 1936,
      "堵": 1937,
      "堿": 1938,
      "塅": 1939,
      "塊": 1940,
      "塌": 1941,
      "塑": 1942,
      "塔": 1943,
      "塗": 1944,
      "塘": 1945,
      "塞": 1946,
      "塩": 1947,
      "填": 1948,
      "塬": 1949,
      "塭": 1950,
      "塾": 1951,
      "境": 1952,
      "墅": 1953,
      "墉": 1954,
      "墒": 1955,
      "墓": 1956,
      "増": 1957,
      "墙": 1958,
      "增": 1959,
      "墟": 1960,
      "墨": 1961,
      "墩": 1962,
      "墮": 1963,
      "墻": 1964,
      "壁": 1965,
      "壅": 1966,
      "壆": 1967,
      "壑": 1968,
      "壓": 1969,
      "壕": 1970,
      "壞": 1971,
      "壟": 1972,
      "壤": 1973,
      "壩": 1974,
      "士": 1975,
      "壬": 1976,
      "壮": 1977,
      "壯": 1978,
      "声": 1979,
      "売": 1980,
      "壳": 1981,
      "壶": 1982,
      "壹": 1983,
      "壺": 1984,
      "壽": 1985,
      "处": 1986,
      "备": 1987,
      "复": 1988,
      "夏": 1989,
      "夐": 1990,
      "夔": 1991,
      "夕": 1992,
      "外": 1993,
      "夙": 1994,
      "多": 1995,
      "夜": 1996,
      "够": 1997,
      "夠": 1998,
      "夢": 1999,
      "大": 2000,
      "天": 2001,
      "太": 2002,
      "夫": 2003,
      "夭": 2004,
      "央": 2005,
      "夯": 2006,
      "失": 2007,
      "头": 2008,
      "夷": 2009,
      "夸": 2010,
      "夹": 2011,
      "夺": 2012,
      "夾": 2013,
      "奂": 2014,
      "奄": 2015,
      "奇": 2016,
      "奈": 2017,
      "奉": 2018,
      "奋": 2019,
      "奎": 2020,
      "奏": 2021,
      "契": 2022,
      "奔": 2023,
      "奕": 2024,
      "奖": 2025,
      "套": 2026,
      "奘": 2027,
      "奚": 2028,
      "奠": 2029,
      "奢": 2030,
      "奥": 2031,
      "奧": 2032,
      "奨": 2033,
      "奮": 2034,
      "女": 2035,
      "奴": 2036,
      "奶": 2037,
      "奸": 2038,
      "她": 2039,
      "好": 2040,
      "妁": 2041,
      "如": 2042,
      "妃": 2043,
      "妄": 2044,
      "妆": 2045,
      "妇": 2046,
      "妈": 2047,
      "妊": 2048,
      "妍": 2049,
      "妏": 2050,
      "妒": 2051,
      "妓": 2052,
      "妖": 2053,
      "妙": 2054,
      "妞": 2055,
      "妤": 2056,
      "妥": 2057,
      "妨": 2058,
      "妩": 2059,
      "妫": 2060,
      "妬": 2061,
      "妮": 2062,
      "妳": 2063,
      "妹": 2064,
      "妻": 2065,
      "妾": 2066,
      "姆": 2067,
      "姊": 2068,
      "始": 2069,
      "姐": 2070,
      "姑": 2071,
      "姒": 2072,
      "姓": 2073,
      "委": 2074,
      "姚": 2075,
      "姜": 2076,
      "姝": 2077,
      "姣": 2078,
      "姥": 2079,
      "姨": 2080,
      "姬": 2081,
      "姳": 2082,
      "姹": 2083,
      "姻": 2084,
      "姿": 2085,
      "威": 2086,
      "娃": 2087,
      "娄": 2088,
      "娅": 2089,
      "娇": 2090,
      "娉": 2091,
      "娑": 2092,
      "娓": 2093,
      "娘": 2094,
      "娜": 2095,
      "娟": 2096,
      "娠": 2097,
      "娡": 2098,
      "娣": 2099,
      "娥": 2100,
      "娩": 2101,
      "娱": 2102,
      "娲": 2103,
      "娴": 2104,
      "娶": 2105,
      "娼": 2106,
      "婀": 2107,
      "婆": 2108,
      "婉": 2109,
      "婊": 2110,
      "婓": 2111,
      "婕": 2112,
      "婚": 2113,
      "婢": 2114,
      "婦": 2115,
      "婧": 2116,
      "婪": 2117,
      "婴": 2118,
      "婵": 2119,
      "婶": 2120,
      "婷": 2121,
      "婺": 2122,
      "婿": 2123,
      "媒": 2124,
      "媚": 2125,
      "媛": 2126,
      "媜": 2127,
      "媪": 2128,
      "媲": 2129,
      "媳": 2130,
      "媽": 2131,
      "嫁": 2132,
      "嫂": 2133,
      "嫄": 2134,
      "嫉": 2135,
      "嫌": 2136,
      "嫔": 2137,
      "嫘": 2138,
      "嫚": 2139,
      "嫡": 2140,
      "嫣": 2141,
      "嫦": 2142,
      "嫩": 2143,
      "嫫": 2144,
      "嫰": 2145,
      "嬉": 2146,
      "嬗": 2147,
      "嬛": 2148,
      "嬰": 2149,
      "嬴": 2150,
      "嬷": 2151,
      "嬿": 2152,
      "孀": 2153,
      "子": 2154,
      "孑": 2155,
      "孔": 2156,
      "孕": 2157,
      "字": 2158,
      "存": 2159,
      "孙": 2160,
      "孚": 2161,
      "孜": 2162,
      "孝": 2163,
      "孟": 2164,
      "孢": 2165,
      "季": 2166,
      "孤": 2167,
      "孥": 2168,
      "学": 2169,
      "孩": 2170,
      "孪": 2171,
      "孫": 2172,
      "孬": 2173,
      "孰": 2174,
      "孱": 2175,
      "孳": 2176,
      "孵": 2177,
      "學": 2178,
      "孺": 2179,
      "孽": 2180,
      "宁": 2181,
      "它": 2182,
      "宄": 2183,
      "宅": 2184,
      "宇": 2185,
      "守": 2186,
      "安": 2187,
      "宋": 2188,
      "完": 2189,
      "宏": 2190,
      "宓": 2191,
      "宕": 2192,
      "宗": 2193,
      "官": 2194,
      "宙": 2195,
      "定": 2196,
      "宛": 2197,
      "宜": 2198,
      "宝": 2199,
      "实": 2200,
      "実": 2201,
      "宠": 2202,
      "审": 2203,
      "客": 2204,
      "宣": 2205,
      "室": 2206,
      "宥": 2207,
      "宦": 2208,
      "宪": 2209,
      "宫": 2210,
      "宮": 2211,
      "宰": 2212,
      "害": 2213,
      "宴": 2214,
      "宵": 2215,
      "家": 2216,
      "宸": 2217,
      "容": 2218,
      "宽": 2219,
      "宾": 2220,
      "宿": 2221,
      "寂": 2222,
      "寄": 2223,
      "寅": 2224,
      "密": 2225,
      "寇": 2226,
      "富": 2227,
      "寐": 2228,
      "寒": 2229,
      "寓": 2230,
      "寘": 2231,
      "寝": 2232,
      "寞": 2233,
      "察": 2234,
      "寡": 2235,
      "寥": 2236,
      "實": 2237,
      "寧": 2238,
      "寨": 2239,
      "審": 2240,
      "寫": 2241,
      "寬": 2242,
      "寮": 2243,
      "寰": 2244,
      "寶": 2245,
      "寸": 2246,
      "对": 2247,
      "寺": 2248,
      "寻": 2249,
      "导": 2250,
      "対": 2251,
      "寿": 2252,
      "封": 2253,
      "専": 2254,
      "射": 2255,
      "将": 2256,
      "將": 2257,
      "專": 2258,
      "尉": 2259,
      "尊": 2260,
      "尋": 2261,
      "對": 2262,
      "導": 2263,
      "小": 2264,
      "少": 2265,
      "尔": 2266,
      "尕": 2267,
      "尖": 2268,
      "尘": 2269,
      "尚": 2270,
      "尝": 2271,
      "尤": 2272,
      "尧": 2273,
      "尬": 2274,
      "就": 2275,
      "尴": 2276,
      "尸": 2277,
      "尹": 2278,
      "尺": 2279,
      "尼": 2280,
      "尽": 2281,
      "尾": 2282,
      "尿": 2283,
      "局": 2284,
      "屁": 2285,
      "层": 2286,
      "居": 2287,
      "屆": 2288,
      "屈": 2289,
      "屉": 2290,
      "届": 2291,
      "屋": 2292,
      "屌": 2293,
      "屍": 2294,
      "屎": 2295,
      "屏": 2296,
      "屑": 2297,
      "展": 2298,
      "屚": 2299,
      "属": 2300,
      "屠": 2301,
      "屡": 2302,
      "層": 2303,
      "履": 2304,
      "屧": 2305,
      "屬": 2306,
      "屯": 2307,
      "山": 2308,
      "屹": 2309,
      "屿": 2310,
      "岁": 2311,
      "岂": 2312,
      "岌": 2313,
      "岍": 2314,
      "岐": 2315,
      "岑": 2316,
      "岔": 2317,
      "岖": 2318,
      "岗": 2319,
      "岘": 2320,
      "岙": 2321,
      "岚": 2322,
      "岛": 2323,
      "岡": 2324,
      "岢": 2325,
      "岩": 2326,
      "岫": 2327,
      "岭": 2328,
      "岱": 2329,
      "岳": 2330,
      "岷": 2331,
      "岸": 2332,
      "岿": 2333,
      "峁": 2334,
      "峄": 2335,
      "峇": 2336,
      "峋": 2337,
      "峒": 2338,
      "峙": 2339,
      "峡": 2340,
      "峤": 2341,
      "峥": 2342,
      "峦": 2343,
      "峨": 2344,
      "峪": 2345,
      "峭": 2346,
      "峰": 2347,
      "島": 2348,
      "峻": 2349,
      "峽": 2350,
      "崂": 2351,
      "崃": 2352,
      "崄": 2353,
      "崆": 2354,
      "崇": 2355,
      "崎": 2356,
      "崔": 2357,
      "崖": 2358,
      "崗": 2359,
      "崛": 2360,
      "崤": 2361,
      "崧": 2362,
      "崩": 2363,
      "崭": 2364,
      "崮": 2365,
      "崴": 2366,
      "崽": 2367,
      "嵊": 2368,
      "嵋": 2369,
      "嵌": 2370,
      "嵘": 2371,
      "嵩": 2372,
      "嵬": 2373,
      "嵴": 2374,
      "嶂": 2375,
      "嶇": 2376,
      "嶙": 2377,
      "嶷": 2378,
      "巅": 2379,
      "巍": 2380,
      "巜": 2381,
      "川": 2382,
      "州": 2383,
      "巡": 2384,
      "巢": 2385,
      "工": 2386,
      "左": 2387,
      "巧": 2388,
      "巨": 2389,
      "巩": 2390,
      "巫": 2391,
      "差": 2392,
      "己": 2393,
      "已": 2394,
      "巳": 2395,
      "巴": 2396,
      "巷": 2397,
      "巽": 2398,
      "巾": 2399,
      "巿": 2400,
      "币": 2401,
      "市": 2402,
      "布": 2403,
      "帄": 2404,
      "帅": 2405,
      "帆": 2406,
      "师": 2407,
      "希": 2408,
      "帏": 2409,
      "帐": 2410,
      "帕": 2411,
      "帖": 2412,
      "帘": 2413,
      "帚": 2414,
      "帛": 2415,
      "帜": 2416,
      "帝": 2417,
      "帥": 2418,
      "带": 2419,
      "帧": 2420,
      "師": 2421,
      "席": 2422,
      "帮": 2423,
      "帱": 2424,
      "帳": 2425,
      "帶": 2426,
      "帷": 2427,
      "常": 2428,
      "帼": 2429,
      "帽": 2430,
      "幂": 2431,
      "幄": 2432,
      "幅": 2433,
      "幌": 2434,
      "幔": 2435,
      "幕": 2436,
      "幡": 2437,
      "幢": 2438,
      "幣": 2439,
      "幫": 2440,
      "干": 2441,
      "平": 2442,
      "年": 2443,
      "幵": 2444,
      "并": 2445,
      "幷": 2446,
      "幸": 2447,
      "幹": 2448,
      "幺": 2449,
      "幻": 2450,
      "幼": 2451,
      "幽": 2452,
      "幾": 2453,
      "广": 2454,
      "庁": 2455,
      "庄": 2456,
      "庆": 2457,
      "庇": 2458,
      "床": 2459,
      "序": 2460,
      "庐": 2461,
      "库": 2462,
      "应": 2463,
      "底": 2464,
      "庖": 2465,
      "店": 2466,
      "庙": 2467,
      "庚": 2468,
      "府": 2469,
      "庞": 2470,
      "废": 2471,
      "庠": 2472,
      "庥": 2473,
      "度": 2474,
      "座": 2475,
      "庫": 2476,
      "庭": 2477,
      "庵": 2478,
      "庶": 2479,
      "康": 2480,
      "庸": 2481,
      "庹": 2482,
      "庾": 2483,
      "廉": 2484,
      "廊": 2485,
      "廓": 2486,
      "廖": 2487,
      "廚": 2488,
      "廠": 2489,
      "廢": 2490,
      "廣": 2491,
      "廪": 2492,
      "廳": 2493,
      "延": 2494,
      "廷": 2495,
      "建": 2496,
      "廻": 2497,
      "廿": 2498,
      "开": 2499,
      "异": 2500,
      "弃": 2501,
      "弄": 2502,
      "弇": 2503,
      "弈": 2504,
      "弊": 2505,
      "弋": 2506,
      "式": 2507,
      "弑": 2508,
      "弓": 2509,
      "引": 2510,
      "弗": 2511,
      "弘": 2512,
      "弛": 2513,
      "弟": 2514,
      "张": 2515,
      "弢": 2516,
      "弥": 2517,
      "弦": 2518,
      "弧": 2519,
      "弩": 2520,
      "弭": 2521,
      "弯": 2522,
      "弱": 2523,
      "張": 2524,
      "強": 2525,
      "弹": 2526,
      "强": 2527,
      "弼": 2528,
      "弾": 2529,
      "彈": 2530,
      "彊": 2531,
      "彌": 2532,
      "归": 2533,
      "当": 2534,
      "录": 2535,
      "彗": 2536,
      "彙": 2537,
      "彝": 2538,
      "形": 2539,
      "彣": 2540,
      "彤": 2541,
      "彦": 2542,
      "彧": 2543,
      "彩": 2544,
      "彪": 2545,
      "彬": 2546,
      "彭": 2547,
      "彰": 2548,
      "影": 2549,
      "彷": 2550,
      "役": 2551,
      "彻": 2552,
      "彼": 2553,
      "彿": 2554,
      "往": 2555,
      "征": 2556,
      "径": 2557,
      "待": 2558,
      "徇": 2559,
      "很": 2560,
      "徉": 2561,
      "徊": 2562,
      "律": 2563,
      "後": 2564,
      "徐": 2565,
      "徒": 2566,
      "徕": 2567,
      "得": 2568,
      "徘": 2569,
      "徙": 2570,
      "徜": 2571,
      "從": 2572,
      "御": 2573,
      "徧": 2574,
      "徨": 2575,
      "復": 2576,
      "循": 2577,
      "徭": 2578,
      "微": 2579,
      "徳": 2580,
      "徵": 2581,
      "德": 2582,
      "徹": 2583,
      "徽": 2584,
      "心": 2585,
      "必": 2586,
      "忆": 2587,
      "忌": 2588,
      "忍": 2589,
      "忏": 2590,
      "忐": 2591,
      "忑": 2592,
      "忒": 2593,
      "忖": 2594,
      "志": 2595,
      "忘": 2596,
      "忙": 2597,
      "忠": 2598,
      "忡": 2599,
      "忧": 2600,
      "忪": 2601,
      "快": 2602,
      "忱": 2603,
      "念": 2604,
      "忻": 2605,
      "忽": 2606,
      "忾": 2607,
      "忿": 2608,
      "怀": 2609,
      "态": 2610,
      "怂": 2611,
      "怅": 2612,
      "怆": 2613,
      "怍": 2614,
      "怎": 2615,
      "怒": 2616,
      "怔": 2617,
      "怕": 2618,
      "怖": 2619,
      "怙": 2620,
      "怜": 2621,
      "思": 2622,
      "怠": 2623,
      "怡": 2624,
      "急": 2625,
      "性": 2626,
      "怨": 2627,
      "怪": 2628,
      "怫": 2629,
      "怯": 2630,
      "怵": 2631,
      "总": 2632,
      "怼": 2633,
      "恁": 2634,
      "恂": 2635,
      "恃": 2636,
      "恋": 2637,
      "恍": 2638,
      "恐": 2639,
      "恒": 2640,
      "恕": 2641,
      "恙": 2642,
      "恢": 2643,
      "恣": 2644,
      "恤": 2645,
      "恨": 2646,
      "恩": 2647,
      "恪": 2648,
      "恫": 2649,
      "恬": 2650,
      "恭": 2651,
      "息": 2652,
      "恰": 2653,
      "恳": 2654,
      "恵": 2655,
      "恶": 2656,
      "恹": 2657,
      "恺": 2658,
      "恻": 2659,
      "恼": 2660,
      "恽": 2661,
      "悄": 2662,
      "悅": 2663,
      "悉": 2664,
      "悌": 2665,
      "悍": 2666,
      "悔": 2667,
      "悖": 2668,
      "悚": 2669,
      "悝": 2670,
      "悟": 2671,
      "悠": 2672,
      "患": 2673,
      "悦": 2674,
      "您": 2675,
      "悬": 2676,
      "悯": 2677,
      "悱": 2678,
      "悲": 2679,
      "悴": 2680,
      "悶": 2681,
      "悸": 2682,
      "悼": 2683,
      "情": 2684,
      "惆": 2685,
      "惇": 2686,
      "惊": 2687,
      "惋": 2688,
      "惑": 2689,
      "惕": 2690,
      "惘": 2691,
      "惙": 2692,
      "惚": 2693,
      "惜": 2694,
      "惟": 2695,
      "惠": 2696,
      "惡": 2697,
      "惦": 2698,
      "惧": 2699,
      "惨": 2700,
      "惩": 2701,
      "惫": 2702,
      "惬": 2703,
      "惭": 2704,
      "惮": 2705,
      "惯": 2706,
      "惰": 2707,
      "惱": 2708,
      "想": 2709,
      "惴": 2710,
      "惶": 2711,
      "惹": 2712,
      "惺": 2713,
      "愁": 2714,
      "愆": 2715,
      "愈": 2716,
      "愉": 2717,
      "愍": 2718,
      "愎": 2719,
      "意": 2720,
      "愕": 2721,
      "愚": 2722,
      "愛": 2723,
      "感": 2724,
      "愠": 2725,
      "愣": 2726,
      "愤": 2727,
      "愧": 2728,
      "愫": 2729,
      "愻": 2730,
      "愿": 2731,
      "慇": 2732,
      "慈": 2733,
      "態": 2734,
      "慌": 2735,
      "慎": 2736,
      "慑": 2737,
      "慕": 2738,
      "慚": 2739,
      "慢": 2740,
      "慣": 2741,
      "慧": 2742,
      "慨": 2743,
      "慮": 2744,
      "慰": 2745,
      "慵": 2746,
      "慷": 2747,
      "憂": 2748,
      "憋": 2749,
      "憎": 2750,
      "憔": 2751,
      "憤": 2752,
      "憧": 2753,
      "憨": 2754,
      "憩": 2755,
      "憬": 2756,
      "憲": 2757,
      "憶": 2758,
      "憾": 2759,
      "懂": 2760,
      "懇": 2761,
      "懈": 2762,
      "應": 2763,
      "懊": 2764,
      "懋": 2765,
      "懒": 2766,
      "懦": 2767,
      "懲": 2768,
      "懵": 2769,
      "懷": 2770,
      "懼": 2771,
      "懿": 2772,
      "戈": 2773,
      "戊": 2774,
      "戋": 2775,
      "戌": 2776,
      "戍": 2777,
      "戎": 2778,
      "戏": 2779,
      "成": 2780,
      "我": 2781,
      "戒": 2782,
      "或": 2783,
      "战": 2784,
      "戚": 2785,
      "戛": 2786,
      "戟": 2787,
      "戡": 2788,
      "戦": 2789,
      "截": 2790,
      "戮": 2791,
      "戰": 2792,
      "戲": 2793,
      "戳": 2794,
      "戴": 2795,
      "戶": 2796,
      "户": 2797,
      "戾": 2798,
      "房": 2799,
      "所": 2800,
      "扁": 2801,
      "扇": 2802,
      "扈": 2803,
      "扉": 2804,
      "手": 2805,
      "才": 2806,
      "扎": 2807,
      "扑": 2808,
      "扒": 2809,
      "打": 2810,
      "扔": 2811,
      "托": 2812,
      "扛": 2813,
      "扣": 2814,
      "扤": 2815,
      "扦": 2816,
      "执": 2817,
      "扩": 2818,
      "扪": 2819,
      "扫": 2820,
      "扬": 2821,
      "扭": 2822,
      "扮": 2823,
      "扯": 2824,
      "扰": 2825,
      "扳": 2826,
      "扶": 2827,
      "批": 2828,
      "扼": 2829,
      "找": 2830,
      "承": 2831,
      "技": 2832,
      "抄": 2833,
      "抉": 2834,
      "把": 2835,
      "抑": 2836,
      "抒": 2837,
      "抓": 2838,
      "抔": 2839,
      "投": 2840,
      "抖": 2841,
      "抗": 2842,
      "折": 2843,
      "抚": 2844,
      "抛": 2845,
      "抠": 2846,
      "抡": 2847,
      "抢": 2848,
      "护": 2849,
      "报": 2850,
      "抨": 2851,
      "披": 2852,
      "抬": 2853,
      "抱": 2854,
      "抵": 2855,
      "抹": 2856,
      "抻": 2857,
      "押": 2858,
      "抽": 2859,
      "抿": 2860,
      "拂": 2861,
      "拃": 2862,
      "拄": 2863,
      "担": 2864,
      "拆": 2865,
      "拇": 2866,
      "拈": 2867,
      "拉": 2868,
      "拌": 2869,
      "拍": 2870,
      "拎": 2871,
      "拐": 2872,
      "拒": 2873,
      "拓": 2874,
      "拔": 2875,
      "拖": 2876,
      "拗": 2877,
      "拘": 2878,
      "拙": 2879,
      "拚": 2880,
      "招": 2881,
      "拜": 2882,
      "拟": 2883,
      "拢": 2884,
      "拣": 2885,
      "拥": 2886,
      "拦": 2887,
      "拧": 2888,
      "拨": 2889,
      "择": 2890,
      "括": 2891,
      "拭": 2892,
      "拮": 2893,
      "拯": 2894,
      "拱": 2895,
      "拳": 2896,
      "拴": 2897,
      "拷": 2898,
      "拼": 2899,
      "拽": 2900,
      "拾": 2901,
      "拿": 2902,
      "持": 2903,
      "挂": 2904,
      "指": 2905,
      "挈": 2906,
      "按": 2907,
      "挎": 2908,
      "挑": 2909,
      "挖": 2910,
      "挚": 2911,
      "挛": 2912,
      "挝": 2913,
      "挞": 2914,
      "挟": 2915,
      "挠": 2916,
      "挡": 2917,
      "挣": 2918,
      "挤": 2919,
      "挥": 2920,
      "挨": 2921,
      "挪": 2922,
      "挫": 2923,
      "振": 2924,
      "挲": 2925,
      "挺": 2926,
      "挽": 2927,
      "捂": 2928,
      "捅": 2929,
      "捆": 2930,
      "捉": 2931,
      "捋": 2932,
      "捌": 2933,
      "捍": 2934,
      "捏": 2935,
      "捐": 2936,
      "捕": 2937,
      "捞": 2938,
      "损": 2939,
      "捡": 2940,
      "换": 2941,
      "捣": 2942,
      "捧": 2943,
      "捭": 2944,
      "据": 2945,
      "捲": 2946,
      "捶": 2947,
      "捷": 2948,
      "捺": 2949,
      "捻": 2950,
      "掀": 2951,
      "掂": 2952,
      "掃": 2953,
      "掇": 2954,
      "授": 2955,
      "掉": 2956,
      "掌": 2957,
      "掏": 2958,
      "掐": 2959,
      "排": 2960,
      "掖": 2961,
      "掘": 2962,
      "掙": 2963,
      "掛": 2964,
      "掠": 2965,
      "採": 2966,
      "探": 2967,
      "掣": 2968,
      "接": 2969,
      "控": 2970,
      "推": 2971,
      "掩": 2972,
      "措": 2973,
      "掬": 2974,
      "掭": 2975,
      "掰": 2976,
      "掳": 2977,
      "掴": 2978,
      "掷": 2979,
      "掸": 2980,
      "掺": 2981,
      "掼": 2982,
      "揀": 2983,
      "揆": 2984,
      "揉": 2985,
      "揍": 2986,
      "描": 2987,
      "提": 2988,
      "插": 2989,
      "揖": 2990,
      "揚": 2991,
      "換": 2992,
      "揠": 2993,
      "握": 2994,
      "揣": 2995,
      "揪": 2996,
      "揭": 2997,
      "揮": 2998,
      "揲": 2999,
      "援": 3000,
      "揽": 3001,
      "搀": 3002,
      "搁": 3003,
      "搂": 3004,
      "搅": 3005,
      "損": 3006,
      "搏": 3007,
      "搐": 3008,
      "搓": 3009,
      "搔": 3010,
      "搜": 3011,
      "搞": 3012,
      "搡": 3013,
      "搧": 3014,
      "搪": 3015,
      "搬": 3016,
      "搭": 3017,
      "搶": 3018,
      "携": 3019,
      "搽": 3020,
      "摄": 3021,
      "摆": 3022,
      "摇": 3023,
      "摈": 3024,
      "摊": 3025,
      "摒": 3026,
      "摔": 3027,
      "摘": 3028,
      "摞": 3029,
      "摧": 3030,
      "摩": 3031,
      "摸": 3032,
      "摹": 3033,
      "撂": 3034,
      "撃": 3035,
      "撅": 3036,
      "撇": 3037,
      "撐": 3038,
      "撑": 3039,
      "撒": 3040,
      "撕": 3041,
      "撞": 3042,
      "撤": 3043,
      "撥": 3044,
      "撩": 3045,
      "撫": 3046,
      "撬": 3047,
      "播": 3048,
      "撮": 3049,
      "撰": 3050,
      "撵": 3051,
      "撷": 3052,
      "撸": 3053,
      "撼": 3054,
      "擀": 3055,
      "擁": 3056,
      "擂": 3057,
      "擅": 3058,
      "擇": 3059,
      "擊": 3060,
      "操": 3061,
      "擎": 3062,
      "擒": 3063,
      "擔": 3064,
      "擘": 3065,
      "據": 3066,
      "擞": 3067,
      "擠": 3068,
      "擢": 3069,
      "擤": 3070,
      "擦": 3071,
      "擬": 3072,
      "擲": 3073,
      "擴": 3074,
      "擷": 3075,
      "擺": 3076,
      "攀": 3077,
      "攒": 3078,
      "攘": 3079,
      "攜": 3080,
      "攝": 3081,
      "攞": 3082,
      "攥": 3083,
      "攫": 3084,
      "攬": 3085,
      "支": 3086,
      "收": 3087,
      "攸": 3088,
      "改": 3089,
      "攻": 3090,
      "放": 3091,
      "政": 3092,
      "故": 3093,
      "效": 3094,
      "敌": 3095,
      "敏": 3096,
      "救": 3097,
      "敕": 3098,
      "敖": 3099,
      "敗": 3100,
      "教": 3101,
      "敛": 3102,
      "敝": 3103,
      "敞": 3104,
      "敢": 3105,
      "散": 3106,
      "敦": 3107,
      "敬": 3108,
      "数": 3109,
      "敲": 3110,
      "整": 3111,
      "敷": 3112,
      "數": 3113,
      "斂": 3114,
      "文": 3115,
      "斉": 3116,
      "斋": 3117,
      "斌": 3118,
      "斐": 3119,
      "斑": 3120,
      "斓": 3121,
      "斗": 3122,
      "料": 3123,
      "斛": 3124,
      "斜": 3125,
      "斟": 3126,
      "斡": 3127,
      "斤": 3128,
      "斥": 3129,
      "斧": 3130,
      "斩": 3131,
      "断": 3132,
      "斯": 3133,
      "新": 3134,
      "斷": 3135,
      "方": 3136,
      "於": 3137,
      "施": 3138,
      "旁": 3139,
      "旂": 3140,
      "旃": 3141,
      "旅": 3142,
      "旋": 3143,
      "旌": 3144,
      "旎": 3145,
      "族": 3146,
      "旖": 3147,
      "旗": 3148,
      "无": 3149,
      "既": 3150,
      "日": 3151,
      "旦": 3152,
      "旧": 3153,
      "旨": 3154,
      "早": 3155,
      "旬": 3156,
      "旭": 3157,
      "旱": 3158,
      "时": 3159,
      "旷": 3160,
      "旸": 3161,
      "旺": 3162,
      "旻": 3163,
      "昀": 3164,
      "昂": 3165,
      "昆": 3166,
      "昇": 3167,
      "昉": 3168,
      "昊": 3169,
      "昌": 3170,
      "明": 3171,
      "昏": 3172,
      "易": 3173,
      "昔": 3174,
      "昕": 3175,
      "昙": 3176,
      "星": 3177,
      "映": 3178,
      "春": 3179,
      "昧": 3180,
      "昨": 3181,
      "昭": 3182,
      "是": 3183,
      "昰": 3184,
      "昱": 3185,
      "昳": 3186,
      "昴": 3187,
      "昵": 3188,
      "昶": 3189,
      "昺": 3190,
      "昼": 3191,
      "显": 3192,
      "晁": 3193,
      "時": 3194,
      "晃": 3195,
      "晋": 3196,
      "晌": 3197,
      "晏": 3198,
      "晒": 3199,
      "晓": 3200,
      "晔": 3201,
      "晕": 3202,
      "晖": 3203,
      "晗": 3204,
      "晚": 3205,
      "晟": 3206,
      "晤": 3207,
      "晦": 3208,
      "晨": 3209,
      "普": 3210,
      "景": 3211,
      "晰": 3212,
      "晴": 3213,
      "晶": 3214,
      "智": 3215,
      "晾": 3216,
      "暁": 3217,
      "暂": 3218,
      "暄": 3219,
      "暇": 3220,
      "暈": 3221,
      "暍": 3222,
      "暑": 3223,
      "暖": 3224,
      "暗": 3225,
      "暠": 3226,
      "暢": 3227,
      "暧": 3228,
      "暨": 3229,
      "暫": 3230,
      "暮": 3231,
      "暴": 3232,
      "暹": 3233,
      "曆": 3234,
      "曉": 3235,
      "曙": 3236,
      "曜": 3237,
      "曝": 3238,
      "曦": 3239,
      "曩": 3240,
      "曰": 3241,
      "曲": 3242,
      "曳": 3243,
      "更": 3244,
      "書": 3245,
      "曹": 3246,
      "曼": 3247,
      "曽": 3248,
      "曾": 3249,
      "替": 3250,
      "最": 3251,
      "會": 3252,
      "月": 3253,
      "有": 3254,
      "朊": 3255,
      "朋": 3256,
      "服": 3257,
      "朐": 3258,
      "朔": 3259,
      "朕": 3260,
      "朗": 3261,
      "望": 3262,
      "朝": 3263,
      "期": 3264,
      "朦": 3265,
      "木": 3266,
      "未": 3267,
      "末": 3268,
      "本": 3269,
      "札": 3270,
      "术": 3271,
      "朱": 3272,
      "朴": 3273,
      "朵": 3274,
      "机": 3275,
      "朽": 3276,
      "杀": 3277,
      "杂": 3278,
      "权": 3279,
      "杆": 3280,
      "杇": 3281,
      "杈": 3282,
      "杉": 3283,
      "李": 3284,
      "杏": 3285,
      "材": 3286,
      "村": 3287,
      "杖": 3288,
      "杜": 3289,
      "杞": 3290,
      "束": 3291,
      "杠": 3292,
      "条": 3293,
      "来": 3294,
      "杨": 3295,
      "杭": 3296,
      "杯": 3297,
      "杰": 3298,
      "東": 3299,
      "杲": 3300,
      "杳": 3301,
      "杵": 3302,
      "杷": 3303,
      "杼": 3304,
      "松": 3305,
      "板": 3306,
      "极": 3307,
      "构": 3308,
      "枇": 3309,
      "枉": 3310,
      "析": 3311,
      "枕": 3312,
      "林": 3313,
      "枚": 3314,
      "果": 3315,
      "枝": 3316,
      "枞": 3317,
      "枢": 3318,
      "枣": 3319,
      "枧": 3320,
      "枨": 3321,
      "枪": 3322,
      "枫": 3323,
      "枭": 3324,
      "枯": 3325,
      "枳": 3326,
      "架": 3327,
      "枷": 3328,
      "枸": 3329,
      "柄": 3330,
      "柏": 3331,
      "某": 3332,
      "柑": 3333,
      "柒": 3334,
      "染": 3335,
      "柔": 3336,
      "柘": 3337,
      "柚": 3338,
      "柜": 3339,
      "柝": 3340,
      "柞": 3341,
      "柠": 3342,
      "柢": 3343,
      "查": 3344,
      "柩": 3345,
      "柬": 3346,
      "柯": 3347,
      "柰": 3348,
      "柱": 3349,
      "柳": 3350,
      "柴": 3351,
      "査": 3352,
      "柽": 3353,
      "柿": 3354,
      "栀": 3355,
      "栅": 3356,
      "标": 3357,
      "栈": 3358,
      "栉": 3359,
      "栋": 3360,
      "栌": 3361,
      "栎": 3362,
      "栏": 3363,
      "树": 3364,
      "栓": 3365,
      "栖": 3366,
      "栗": 3367,
      "校": 3368,
      "栩": 3369,
      "株": 3370,
      "栲": 3371,
      "样": 3372,
      "核": 3373,
      "根": 3374,
      "栻": 3375,
      "格": 3376,
      "栽": 3377,
      "栾": 3378,
      "桀": 3379,
      "桁": 3380,
      "桂": 3381,
      "桃": 3382,
      "桅": 3383,
      "框": 3384,
      "案": 3385,
      "桉": 3386,
      "桌": 3387,
      "桎": 3388,
      "桐": 3389,
      "桑": 3390,
      "桓": 3391,
      "桔": 3392,
      "桠": 3393,
      "桡": 3394,
      "桢": 3395,
      "档": 3396,
      "桥": 3397,
      "桦": 3398,
      "桧": 3399,
      "桨": 3400,
      "桩": 3401,
      "桶": 3402,
      "桷": 3403,
      "梁": 3404,
      "梃": 3405,
      "梅": 3406,
      "梆": 3407,
      "梏": 3408,
      "梓": 3409,
      "梗": 3410,
      "條": 3411,
      "梢": 3412,
      "梦": 3413,
      "梧": 3414,
      "梨": 3415,
      "梭": 3416,
      "梯": 3417,
      "械": 3418,
      "梳": 3419,
      "梵": 3420,
      "梼": 3421,
      "检": 3422,
      "棂": 3423,
      "棄": 3424,
      "棉": 3425,
      "棋": 3426,
      "棍": 3427,
      "棒": 3428,
      "棕": 3429,
      "棘": 3430,
      "棚": 3431,
      "棟": 3432,
      "棠": 3433,
      "棣": 3434,
      "棧": 3435,
      "森": 3436,
      "棱": 3437,
      "棲": 3438,
      "棵": 3439,
      "棺": 3440,
      "椁": 3441,
      "椅": 3442,
      "植": 3443,
      "椎": 3444,
      "椐": 3445,
      "椒": 3446,
      "検": 3447,
      "椟": 3448,
      "椤": 3449,
      "椪": 3450,
      "椭": 3451,
      "椰": 3452,
      "椹": 3453,
      "椿": 3454,
      "楂": 3455,
      "楊": 3456,
      "楔": 3457,
      "楗": 3458,
      "楚": 3459,
      "楝": 3460,
      "楞": 3461,
      "楠": 3462,
      "楣": 3463,
      "楫": 3464,
      "業": 3465,
      "極": 3466,
      "楷": 3467,
      "楸": 3468,
      "楹": 3469,
      "楼": 3470,
      "楽": 3471,
      "概": 3472,
      "榄": 3473,
      "榆": 3474,
      "榈": 3475,
      "榉": 3476,
      "榔": 3477,
      "榕": 3478,
      "榛": 3479,
      "榜": 3480,
      "榨": 3481,
      "榫": 3482,
      "榮": 3483,
      "榴": 3484,
      "榷": 3485,
      "榻": 3486,
      "槁": 3487,
      "槃": 3488,
      "構": 3489,
      "槌": 3490,
      "槍": 3491,
      "槎": 3492,
      "槐": 3493,
      "槛": 3494,
      "槟": 3495,
      "槠": 3496,
      "槫": 3497,
      "槭": 3498,
      "槲": 3499,
      "槽": 3500,
      "槿": 3501,
      "樂": 3502,
      "樊": 3503,
      "樋": 3504,
      "樑": 3505,
      "樓": 3506,
      "樘": 3507,
      "標": 3508,
      "樞": 3509,
      "樟": 3510,
      "模": 3511,
      "樣": 3512,
      "権": 3513,
      "横": 3514,
      "樱": 3515,
      "樵": 3516,
      "樹": 3517,
      "樽": 3518,
      "橄": 3519,
      "橇": 3520,
      "橋": 3521,
      "橐": 3522,
      "橘": 3523,
      "橙": 3524,
      "機": 3525,
      "橡": 3526,
      "橫": 3527,
      "橱": 3528,
      "橼": 3529,
      "檀": 3530,
      "檄": 3531,
      "檐": 3532,
      "檔": 3533,
      "檗": 3534,
      "檠": 3535,
      "檢": 3536,
      "檩": 3537,
      "檫": 3538,
      "檬": 3539,
      "櫴": 3540,
      "櫻": 3541,
      "櫽": 3542,
      "欄": 3543,
      "權": 3544,
      "欠": 3545,
      "次": 3546,
      "欢": 3547,
      "欣": 3548,
      "欤": 3549,
      "欧": 3550,
      "欲": 3551,
      "欸": 3552,
      "欺": 3553,
      "款": 3554,
      "歆": 3555,
      "歇": 3556,
      "歉": 3557,
      "歌": 3558,
      "歐": 3559,
      "歙": 3560,
      "歡": 3561,
      "止": 3562,
      "正": 3563,
      "此": 3564,
      "步": 3565,
      "武": 3566,
      "歧": 3567,
      "歪": 3568,
      "歲": 3569,
      "歷": 3570,
      "歸": 3571,
      "歹": 3572,
      "歺": 3573,
      "死": 3574,
      "歼": 3575,
      "殁": 3576,
      "殃": 3577,
      "殆": 3578,
      "殇": 3579,
      "殉": 3580,
      "殊": 3581,
      "残": 3582,
      "殒": 3583,
      "殓": 3584,
      "殖": 3585,
      "殘": 3586,
      "殚": 3587,
      "殡": 3588,
      "殳": 3589,
      "殴": 3590,
      "段": 3591,
      "殷": 3592,
      "殺": 3593,
      "殼": 3594,
      "殿": 3595,
      "毀": 3596,
      "毁": 3597,
      "毂": 3598,
      "毅": 3599,
      "毋": 3600,
      "母": 3601,
      "毎": 3602,
      "每": 3603,
      "毒": 3604,
      "毓": 3605,
      "比": 3606,
      "毕": 3607,
      "毖": 3608,
      "毗": 3609,
      "毙": 3610,
      "毚": 3611,
      "毛": 3612,
      "毡": 3613,
      "毫": 3614,
      "毯": 3615,
      "毽": 3616,
      "氅": 3617,
      "氏": 3618,
      "氐": 3619,
      "民": 3620,
      "氓": 3621,
      "气": 3622,
      "氖": 3623,
      "気": 3624,
      "氘": 3625,
      "氙": 3626,
      "氚": 3627,
      "氛": 3628,
      "氟": 3629,
      "氢": 3630,
      "氣": 3631,
      "氤": 3632,
      "氦": 3633,
      "氧": 3634,
      "氨": 3635,
      "氮": 3636,
      "氯": 3637,
      "氰": 3638,
      "氲": 3639,
      "水": 3640,
      "永": 3641,
      "氹": 3642,
      "氿": 3643,
      "汀": 3644,
      "汁": 3645,
      "求": 3646,
      "汆": 3647,
      "汇": 3648,
      "汉": 3649,
      "汊": 3650,
      "汐": 3651,
      "汔": 3652,
      "汕": 3653,
      "汗": 3654,
      "汛": 3655,
      "汜": 3656,
      "汝": 3657,
      "汞": 3658,
      "江": 3659,
      "池": 3660,
      "污": 3661,
      "汤": 3662,
      "汨": 3663,
      "汪": 3664,
      "汰": 3665,
      "汲": 3666,
      "汴": 3667,
      "汶": 3668,
      "汹": 3669,
      "決": 3670,
      "汽": 3671,
      "汾": 3672,
      "沁": 3673,
      "沂": 3674,
      "沃": 3675,
      "沅": 3676,
      "沆": 3677,
      "沈": 3678,
      "沉": 3679,
      "沌": 3680,
      "沏": 3681,
      "沐": 3682,
      "沒": 3683,
      "沓": 3684,
      "沖": 3685,
      "沘": 3686,
      "沙": 3687,
      "沛": 3688,
      "沟": 3689,
      "没": 3690,
      "沣": 3691,
      "沤": 3692,
      "沥": 3693,
      "沦": 3694,
      "沧": 3695,
      "沩": 3696,
      "沪": 3697,
      "沫": 3698,
      "沭": 3699,
      "沮": 3700,
      "沱": 3701,
      "河": 3702,
      "沸": 3703,
      "油": 3704,
      "治": 3705,
      "沼": 3706,
      "沽": 3707,
      "沾": 3708,
      "沿": 3709,
      "況": 3710,
      "泄": 3711,
      "泅": 3712,
      "泉": 3713,
      "泊": 3714,
      "泌": 3715,
      "泓": 3716,
      "泔": 3717,
      "法": 3718,
      "泗": 3719,
      "泛": 3720,
      "泞": 3721,
      "泠": 3722,
      "泡": 3723,
      "波": 3724,
      "泣": 3725,
      "泥": 3726,
      "注": 3727,
      "泪": 3728,
      "泫": 3729,
      "泮": 3730,
      "泯": 3731,
      "泰": 3732,
      "泱": 3733,
      "泳": 3734,
      "泵": 3735,
      "泷": 3736,
      "泸": 3737,
      "泻": 3738,
      "泼": 3739,
      "泽": 3740,
      "泾": 3741,
      "洁": 3742,
      "洄": 3743,
      "洋": 3744,
      "洒": 3745,
      "洗": 3746,
      "洙": 3747,
      "洛": 3748,
      "洞": 3749,
      "津": 3750,
      "洪": 3751,
      "洫": 3752,
      "洮": 3753,
      "洱": 3754,
      "洲": 3755,
      "洵": 3756,
      "洸": 3757,
      "洹": 3758,
      "洺": 3759,
      "活": 3760,
      "洼": 3761,
      "洽": 3762,
      "派": 3763,
      "流": 3764,
      "浃": 3765,
      "浅": 3766,
      "浆": 3767,
      "浇": 3768,
      "浊": 3769,
      "测": 3770,
      "济": 3771,
      "浏": 3772,
      "浑": 3773,
      "浒": 3774,
      "浓": 3775,
      "浔": 3776,
      "浙": 3777,
      "浚": 3778,
      "浜": 3779,
      "浠": 3780,
      "浡": 3781,
      "浣": 3782,
      "浤": 3783,
      "浥": 3784,
      "浦": 3785,
      "浩": 3786,
      "浪": 3787,
      "浮": 3788,
      "浴": 3789,
      "海": 3790,
      "浸": 3791,
      "涂": 3792,
      "涅": 3793,
      "消": 3794,
      "涉": 3795,
      "涌": 3796,
      "涎": 3797,
      "涓": 3798,
      "涔": 3799,
      "涕": 3800,
      "涛": 3801,
      "涝": 3802,
      "涟": 3803,
      "涡": 3804,
      "涣": 3805,
      "涤": 3806,
      "润": 3807,
      "涧": 3808,
      "涨": 3809,
      "涩": 3810,
      "涪": 3811,
      "涮": 3812,
      "涯": 3813,
      "液": 3814,
      "涵": 3815,
      "涸": 3816,
      "涼": 3817,
      "涿": 3818,
      "淀": 3819,
      "淄": 3820,
      "淅": 3821,
      "淆": 3822,
      "淇": 3823,
      "淋": 3824,
      "淌": 3825,
      "淏": 3826,
      "淑": 3827,
      "淖": 3828,
      "淘": 3829,
      "淝": 3830,
      "淞": 3831,
      "淡": 3832,
      "淤": 3833,
      "淦": 3834,
      "淨": 3835,
      "淫": 3836,
      "淬": 3837,
      "淮": 3838,
      "淰": 3839,
      "深": 3840,
      "淳": 3841,
      "淵": 3842,
      "混": 3843,
      "淹": 3844,
      "添": 3845,
      "淼": 3846,
      "清": 3847,
      "済": 3848,
      "渊": 3849,
      "渍": 3850,
      "渎": 3851,
      "渐": 3852,
      "渑": 3853,
      "渔": 3854,
      "渗": 3855,
      "渚": 3856,
      "減": 3857,
      "渝": 3858,
      "渠": 3859,
      "渡": 3860,
      "渣": 3861,
      "渤": 3862,
      "渥": 3863,
      "温": 3864,
      "測": 3865,
      "渭": 3866,
      "港": 3867,
      "渲": 3868,
      "渴": 3869,
      "游": 3870,
      "渺": 3871,
      "湃": 3872,
      "湄": 3873,
      "湉": 3874,
      "湍": 3875,
      "湔": 3876,
      "湖": 3877,
      "湘": 3878,
      "湛": 3879,
      "湜": 3880,
      "湟": 3881,
      "湣": 3882,
      "湫": 3883,
      "湮": 3884,
      "湯": 3885,
      "湴": 3886,
      "湾": 3887,
      "湿": 3888,
      "溃": 3889,
      "溅": 3890,
      "溆": 3891,
      "溉": 3892,
      "溏": 3893,
      "源": 3894,
      "準": 3895,
      "溘": 3896,
      "溜": 3897,
      "溝": 3898,
      "溟": 3899,
      "溢": 3900,
      "溥": 3901,
      "溧": 3902,
      "溪": 3903,
      "溫": 3904,
      "溯": 3905,
      "溱": 3906,
      "溲": 3907,
      "溴": 3908,
      "溶": 3909,
      "溺": 3910,
      "滁": 3911,
      "滅": 3912,
      "滇": 3913,
      "滉": 3914,
      "滋": 3915,
      "滏": 3916,
      "滑": 3917,
      "滓": 3918,
      "滔": 3919,
      "滕": 3920,
      "滚": 3921,
      "滞": 3922,
      "滟": 3923,
      "满": 3924,
      "滢": 3925,
      "滤": 3926,
      "滥": 3927,
      "滦": 3928,
      "滨": 3929,
      "滩": 3930,
      "滪": 3931,
      "滯": 3932,
      "滲": 3933,
      "滴": 3934,
      "滹": 3935,
      "滿": 3936,
      "漂": 3937,
      "漆": 3938,
      "漉": 3939,
      "漏": 3940,
      "漓": 3941,
      "演": 3942,
      "漕": 3943,
      "漠": 3944,
      "漢": 3945,
      "漩": 3946,
      "漪": 3947,
      "漫": 3948,
      "漭": 3949,
      "漯": 3950,
      "漱": 3951,
      "漳": 3952,
      "漸": 3953,
      "漾": 3954,
      "漿": 3955,
      "潇": 3956,
      "潋": 3957,
      "潍": 3958,
      "潑": 3959,
      "潔": 3960,
      "潘": 3961,
      "潛": 3962,
      "潜": 3963,
      "潞": 3964,
      "潟": 3965,
      "潢": 3966,
      "潤": 3967,
      "潦": 3968,
      "潭": 3969,
      "潮": 3970,
      "潰": 3971,
      "潲": 3972,
      "潴": 3973,
      "潸": 3974,
      "潺": 3975,
      "潼": 3976,
      "澂": 3977,
      "澄": 3978,
      "澆": 3979,
      "澈": 3980,
      "澍": 3981,
      "澎": 3982,
      "澔": 3983,
      "澜": 3984,
      "澡": 3985,
      "澤": 3986,
      "澧": 3987,
      "澱": 3988,
      "澳": 3989,
      "澶": 3990,
      "澹": 3991,
      "激": 3992,
      "濂": 3993,
      "濃": 3994,
      "濇": 3995,
      "濉": 3996,
      "濑": 3997,
      "濒": 3998,
      "濕": 3999,
      "濛": 4000,
      "濟": 4001,
      "濠": 4002,
      "濡": 4003,
      "濤": 4004,
      "濬": 4005,
      "濮": 4006,
      "濯": 4007,
      "濾": 4008,
      "瀍": 4009,
      "瀏": 4010,
      "瀑": 4011,
      "瀚": 4012,
      "瀛": 4013,
      "瀣": 4014,
      "灌": 4015,
      "灏": 4016,
      "灘": 4017,
      "灞": 4018,
      "灣": 4019,
      "火": 4020,
      "灭": 4021,
      "灯": 4022,
      "灰": 4023,
      "灵": 4024,
      "灶": 4025,
      "灸": 4026,
      "灼": 4027,
      "災": 4028,
      "灾": 4029,
      "灿": 4030,
      "炀": 4031,
      "炅": 4032,
      "炉": 4033,
      "炊": 4034,
      "炎": 4035,
      "炒": 4036,
      "炔": 4037,
      "炕": 4038,
      "炖": 4039,
      "炘": 4040,
      "炙": 4041,
      "炜": 4042,
      "炤": 4043,
      "炫": 4044,
      "炬": 4045,
      "炭": 4046,
      "炮": 4047,
      "炯": 4048,
      "炱": 4049,
      "炳": 4050,
      "炷": 4051,
      "炸": 4052,
      "点": 4053,
      "為": 4054,
      "炼": 4055,
      "炽": 4056,
      "烁": 4057,
      "烂": 4058,
      "烃": 4059,
      "烈": 4060,
      "烊": 4061,
      "烏": 4062,
      "烘": 4063,
      "烙": 4064,
      "烛": 4065,
      "烜": 4066,
      "烟": 4067,
      "烠": 4068,
      "烤": 4069,
      "烦": 4070,
      "烧": 4071,
      "烨": 4072,
      "烩": 4073,
      "烫": 4074,
      "烬": 4075,
      "热": 4076,
      "烯": 4077,
      "烷": 4078,
      "烹": 4079,
      "烺": 4080,
      "烽": 4081,
      "焉": 4082,
      "焊": 4083,
      "焓": 4084,
      "焕": 4085,
      "焖": 4086,
      "焘": 4087,
      "焙": 4088,
      "焚": 4089,
      "無": 4090,
      "焦": 4091,
      "焯": 4092,
      "焰": 4093,
      "焱": 4094,
      "然": 4095,
      "焼": 4096,
      "煅": 4097,
      "煉": 4098,
      "煌": 4099,
      "煎": 4100,
      "煙": 4101,
      "煜": 4102,
      "煞": 4103,
      "煤": 4104,
      "煦": 4105,
      "照": 4106,
      "煨": 4107,
      "煩": 4108,
      "煮": 4109,
      "煲": 4110,
      "煸": 4111,
      "煽": 4112,
      "熄": 4113,
      "熊": 4114,
      "熏": 4115,
      "熔": 4116,
      "熖": 4117,
      "熘": 4118,
      "熙": 4119,
      "熜": 4120,
      "熟": 4121,
      "熠": 4122,
      "熨": 4123,
      "熬": 4124,
      "熱": 4125,
      "熵": 4126,
      "熹": 4127,
      "熺": 4128,
      "燃": 4129,
      "燈": 4130,
      "燉": 4131,
      "燊": 4132,
      "燎": 4133,
      "燒": 4134,
      "燕": 4135,
      "燙": 4136,
      "營": 4137,
      "燥": 4138,
      "燧": 4139,
      "燮": 4140,
      "爆": 4141,
      "爐": 4142,
      "爛": 4143,
      "爪": 4144,
      "爬": 4145,
      "爭": 4146,
      "爰": 4147,
      "爱": 4148,
      "爲": 4149,
      "爵": 4150,
      "父": 4151,
      "爷": 4152,
      "爸": 4153,
      "爹": 4154,
      "爻": 4155,
      "爽": 4156,
      "爾": 4157,
      "牀": 4158,
      "牁": 4159,
      "牂": 4160,
      "牆": 4161,
      "片": 4162,
      "版": 4163,
      "牌": 4164,
      "牍": 4165,
      "牒": 4166,
      "牖": 4167,
      "牙": 4168,
      "牛": 4169,
      "牟": 4170,
      "牠": 4171,
      "牡": 4172,
      "牢": 4173,
      "牦": 4174,
      "牧": 4175,
      "物": 4176,
      "牲": 4177,
      "牵": 4178,
      "特": 4179,
      "牺": 4180,
      "牽": 4181,
      "犀": 4182,
      "犁": 4183,
      "犊": 4184,
      "犍": 4185,
      "犒": 4186,
      "犟": 4187,
      "犧": 4188,
      "犬": 4189,
      "犯": 4190,
      "状": 4191,
      "犷": 4192,
      "犸": 4193,
      "犹": 4194,
      "狀": 4195,
      "狂": 4196,
      "狄": 4197,
      "狈": 4198,
      "狍": 4199,
      "狎": 4200,
      "狐": 4201,
      "狒": 4202,
      "狗": 4203,
      "狙": 4204,
      "狞": 4205,
      "狠": 4206,
      "狡": 4207,
      "狩": 4208,
      "独": 4209,
      "狭": 4210,
      "狮": 4211,
      "狰": 4212,
      "狱": 4213,
      "狲": 4214,
      "狷": 4215,
      "狸": 4216,
      "狻": 4217,
      "狼": 4218,
      "猊": 4219,
      "猎": 4220,
      "猕": 4221,
      "猖": 4222,
      "猛": 4223,
      "猜": 4224,
      "猝": 4225,
      "猢": 4226,
      "猥": 4227,
      "猩": 4228,
      "猪": 4229,
      "猫": 4230,
      "猬": 4231,
      "献": 4232,
      "猴": 4233,
      "猶": 4234,
      "猷": 4235,
      "猹": 4236,
      "猾": 4237,
      "猿": 4238,
      "獅": 4239,
      "獎": 4240,
      "獐": 4241,
      "獒": 4242,
      "獗": 4243,
      "獠": 4244,
      "獨": 4245,
      "獭": 4246,
      "獲": 4247,
      "獵": 4248,
      "獸": 4249,
      "獻": 4250,
      "獾": 4251,
      "玄": 4252,
      "率": 4253,
      "玉": 4254,
      "王": 4255,
      "玎": 4256,
      "玑": 4257,
      "玕": 4258,
      "玖": 4259,
      "玛": 4260,
      "玟": 4261,
      "玠": 4262,
      "玢": 4263,
      "玥": 4264,
      "玩": 4265,
      "玫": 4266,
      "玮": 4267,
      "环": 4268,
      "现": 4269,
      "玲": 4270,
      "玳": 4271,
      "玷": 4272,
      "玺": 4273,
      "玻": 4274,
      "珀": 4275,
      "珂": 4276,
      "珅": 4277,
      "珈": 4278,
      "珉": 4279,
      "珊": 4280,
      "珍": 4281,
      "珏": 4282,
      "珐": 4283,
      "珑": 4284,
      "珞": 4285,
      "珠": 4286,
      "珣": 4287,
      "珥": 4288,
      "珩": 4289,
      "珪": 4290,
      "班": 4291,
      "珮": 4292,
      "珲": 4293,
      "珺": 4294,
      "珽": 4295,
      "現": 4296,
      "琀": 4297,
      "球": 4298,
      "琅": 4299,
      "理": 4300,
      "琇": 4301,
      "琉": 4302,
      "琊": 4303,
      "琏": 4304,
      "琐": 4305,
      "琚": 4306,
      "琛": 4307,
      "琢": 4308,
      "琥": 4309,
      "琦": 4310,
      "琨": 4311,
      "琪": 4312,
      "琬": 4313,
      "琮": 4314,
      "琰": 4315,
      "琲": 4316,
      "琳": 4317,
      "琴": 4318,
      "琵": 4319,
      "琶": 4320,
      "琹": 4321,
      "琼": 4322,
      "瑀": 4323,
      "瑁": 4324,
      "瑄": 4325,
      "瑋": 4326,
      "瑕": 4327,
      "瑗": 4328,
      "瑙": 4329,
      "瑚": 4330,
      "瑛": 4331,
      "瑜": 4332,
      "瑞": 4333,
      "瑟": 4334,
      "瑣": 4335,
      "瑧": 4336,
      "瑪": 4337,
      "瑰": 4338,
      "瑶": 4339,
      "瑷": 4340,
      "瑾": 4341,
      "璀": 4342,
      "璃": 4343,
      "璆": 4344,
      "璇": 4345,
      "璋": 4346,
      "璎": 4347,
      "璐": 4348,
      "璘": 4349,
      "璜": 4350,
      "璞": 4351,
      "璟": 4352,
      "璧": 4353,
      "璨": 4354,
      "環": 4355,
      "璿": 4356,
      "瓒": 4357,
      "瓜": 4358,
      "瓠": 4359,
      "瓢": 4360,
      "瓣": 4361,
      "瓤": 4362,
      "瓦": 4363,
      "瓮": 4364,
      "瓯": 4365,
      "瓴": 4366,
      "瓶": 4367,
      "瓷": 4368,
      "瓿": 4369,
      "甄": 4370,
      "甘": 4371,
      "甙": 4372,
      "甚": 4373,
      "甜": 4374,
      "生": 4375,
      "產": 4376,
      "産": 4377,
      "甥": 4378,
      "甦": 4379,
      "用": 4380,
      "甩": 4381,
      "甫": 4382,
      "甬": 4383,
      "甭": 4384,
      "甯": 4385,
      "田": 4386,
      "由": 4387,
      "甲": 4388,
      "申": 4389,
      "电": 4390,
      "男": 4391,
      "甸": 4392,
      "町": 4393,
      "画": 4394,
      "甾": 4395,
      "畀": 4396,
      "畄": 4397,
      "畅": 4398,
      "畈": 4399,
      "畋": 4400,
      "界": 4401,
      "畏": 4402,
      "畔": 4403,
      "留": 4404,
      "畛": 4405,
      "畜": 4406,
      "畢": 4407,
      "略": 4408,
      "畦": 4409,
      "番": 4410,
      "畫": 4411,
      "異": 4412,
      "畲": 4413,
      "畴": 4414,
      "當": 4415,
      "畸": 4416,
      "畹": 4417,
      "畿": 4418,
      "疃": 4419,
      "疆": 4420,
      "疊": 4421,
      "疏": 4422,
      "疑": 4423,
      "疔": 4424,
      "疖": 4425,
      "疗": 4426,
      "疙": 4427,
      "疚": 4428,
      "疝": 4429,
      "疟": 4430,
      "疠": 4431,
      "疡": 4432,
      "疣": 4433,
      "疤": 4434,
      "疥": 4435,
      "疫": 4436,
      "疬": 4437,
      "疮": 4438,
      "疯": 4439,
      "疱": 4440,
      "疲": 4441,
      "疴": 4442,
      "疵": 4443,
      "疸": 4444,
      "疹": 4445,
      "疼": 4446,
      "疽": 4447,
      "疾": 4448,
      "痂": 4449,
      "痄": 4450,
      "病": 4451,
      "症": 4452,
      "痈": 4453,
      "痉": 4454,
      "痊": 4455,
      "痍": 4456,
      "痒": 4457,
      "痔": 4458,
      "痕": 4459,
      "痘": 4460,
      "痛": 4461,
      "痞": 4462,
      "痢": 4463,
      "痣": 4464,
      "痤": 4465,
      "痧": 4466,
      "痨": 4467,
      "痪": 4468,
      "痫": 4469,
      "痰": 4470,
      "痱": 4471,
      "痴": 4472,
      "痹": 4473,
      "痺": 4474,
      "痿": 4475,
      "瘀": 4476,
      "瘁": 4477,
      "瘊": 4478,
      "瘘": 4479,
      "瘙": 4480,
      "瘟": 4481,
      "瘠": 4482,
      "瘡": 4483,
      "瘢": 4484,
      "瘤": 4485,
      "瘦": 4486,
      "瘩": 4487,
      "瘪": 4488,
      "瘫": 4489,
      "瘰": 4490,
      "瘴": 4491,
      "瘵": 4492,
      "瘸": 4493,
      "瘾": 4494,
      "瘿": 4495,
      "療": 4496,
      "癈": 4497,
      "癌": 4498,
      "癔": 4499,
      "癖": 4500,
      "癜": 4501,
      "癞": 4502,
      "癡": 4503,
      "癣": 4504,
      "癥": 4505,
      "癫": 4506,
      "癸": 4507,
      "発": 4508,
      "登": 4509,
      "發": 4510,
      "白": 4511,
      "百": 4512,
      "皂": 4513,
      "的": 4514,
      "皆": 4515,
      "皇": 4516,
      "皈": 4517,
      "皋": 4518,
      "皎": 4519,
      "皑": 4520,
      "皓": 4521,
      "皖": 4522,
      "皙": 4523,
      "皞": 4524,
      "皮": 4525,
      "皱": 4526,
      "皲": 4527,
      "皴": 4528,
      "皹": 4529,
      "皿": 4530,
      "盂": 4531,
      "盆": 4532,
      "盈": 4533,
      "益": 4534,
      "盎": 4535,
      "盏": 4536,
      "盐": 4537,
      "监": 4538,
      "盒": 4539,
      "盔": 4540,
      "盖": 4541,
      "盗": 4542,
      "盘": 4543,
      "盛": 4544,
      "盟": 4545,
      "盡": 4546,
      "監": 4547,
      "盤": 4548,
      "盥": 4549,
      "盦": 4550,
      "目": 4551,
      "盯": 4552,
      "盲": 4553,
      "直": 4554,
      "相": 4555,
      "盹": 4556,
      "盼": 4557,
      "盾": 4558,
      "省": 4559,
      "眉": 4560,
      "看": 4561,
      "眚": 4562,
      "真": 4563,
      "眠": 4564,
      "眦": 4565,
      "眨": 4566,
      "眩": 4567,
      "眯": 4568,
      "眶": 4569,
      "眷": 4570,
      "眸": 4571,
      "眺": 4572,
      "眼": 4573,
      "眾": 4574,
      "着": 4575,
      "睁": 4576,
      "睆": 4577,
      "睐": 4578,
      "睑": 4579,
      "睚": 4580,
      "睛": 4581,
      "睡": 4582,
      "睢": 4583,
      "督": 4584,
      "睥": 4585,
      "睦": 4586,
      "睨": 4587,
      "睫": 4588,
      "睬": 4589,
      "睹": 4590,
      "睽": 4591,
      "睾": 4592,
      "睿": 4593,
      "瞄": 4594,
      "瞅": 4595,
      "瞋": 4596,
      "瞌": 4597,
      "瞎": 4598,
      "瞑": 4599,
      "瞒": 4600,
      "瞟": 4601,
      "瞠": 4602,
      "瞥": 4603,
      "瞧": 4604,
      "瞩": 4605,
      "瞪": 4606,
      "瞬": 4607,
      "瞭": 4608,
      "瞰": 4609,
      "瞳": 4610,
      "瞻": 4611,
      "瞿": 4612,
      "矍": 4613,
      "矗": 4614,
      "矛": 4615,
      "矜": 4616,
      "矢": 4617,
      "矣": 4618,
      "知": 4619,
      "矩": 4620,
      "矫": 4621,
      "短": 4622,
      "矮": 4623,
      "石": 4624,
      "矶": 4625,
      "矷": 4626,
      "矸": 4627,
      "矾": 4628,
      "矿": 4629,
      "砀": 4630,
      "码": 4631,
      "砂": 4632,
      "砈": 4633,
      "砌": 4634,
      "砍": 4635,
      "砑": 4636,
      "砒": 4637,
      "研": 4638,
      "砖": 4639,
      "砚": 4640,
      "砜": 4641,
      "砝": 4642,
      "砥": 4643,
      "砦": 4644,
      "砧": 4645,
      "砬": 4646,
      "砯": 4647,
      "砰": 4648,
      "破": 4649,
      "砷": 4650,
      "砸": 4651,
      "砺": 4652,
      "砼": 4653,
      "砾": 4654,
      "础": 4655,
      "硅": 4656,
      "硇": 4657,
      "硋": 4658,
      "硎": 4659,
      "硐": 4660,
      "硒": 4661,
      "硕": 4662,
      "硖": 4663,
      "硚": 4664,
      "硝": 4665,
      "硫": 4666,
      "硬": 4667,
      "确": 4668,
      "硼": 4669,
      "碁": 4670,
      "碉": 4671,
      "碌": 4672,
      "碍": 4673,
      "碎": 4674,
      "碑": 4675,
      "碓": 4676,
      "碗": 4677,
      "碘": 4678,
      "碚": 4679,
      "碜": 4680,
      "碟": 4681,
      "碣": 4682,
      "碧": 4683,
      "碨": 4684,
      "碩": 4685,
      "碰": 4686,
      "碱": 4687,
      "碲": 4688,
      "碳": 4689,
      "碴": 4690,
      "確": 4691,
      "碼": 4692,
      "碾": 4693,
      "磁": 4694,
      "磅": 4695,
      "磊": 4696,
      "磋": 4697,
      "磐": 4698,
      "磔": 4699,
      "磕": 4700,
      "磨": 4701,
      "磬": 4702,
      "磯": 4703,
      "磷": 4704,
      "磺": 4705,
      "磻": 4706,
      "磾": 4707,
      "礁": 4708,
      "礎": 4709,
      "礓": 4710,
      "礙": 4711,
      "礦": 4712,
      "礬": 4713,
      "礳": 4714,
      "礴": 4715,
      "示": 4716,
      "礼": 4717,
      "礽": 4718,
      "社": 4719,
      "祀": 4720,
      "祁": 4721,
      "祂": 4722,
      "祇": 4723,
      "祈": 4724,
      "祉": 4725,
      "祎": 4726,
      "祐": 4727,
      "祖": 4728,
      "祚": 4729,
      "祛": 4730,
      "祜": 4731,
      "祝": 4732,
      "神": 4733,
      "祟": 4734,
      "祠": 4735,
      "祢": 4736,
      "祥": 4737,
      "票": 4738,
      "祭": 4739,
      "祯": 4740,
      "祷": 4741,
      "祸": 4742,
      "祺": 4743,
      "祾": 4744,
      "祿": 4745,
      "禀": 4746,
      "禁": 4747,
      "禄": 4748,
      "禅": 4749,
      "禊": 4750,
      "禋": 4751,
      "福": 4752,
      "禚": 4753,
      "禦": 4754,
      "禧": 4755,
      "禩": 4756,
      "禪": 4757,
      "禮": 4758,
      "禱": 4759,
      "禹": 4760,
      "禺": 4761,
      "离": 4762,
      "禽": 4763,
      "禾": 4764,
      "秀": 4765,
      "私": 4766,
      "秃": 4767,
      "秆": 4768,
      "秉": 4769,
      "秋": 4770,
      "种": 4771,
      "科": 4772,
      "秒": 4773,
      "秕": 4774,
      "秘": 4775,
      "租": 4776,
      "秣": 4777,
      "秤": 4778,
      "秦": 4779,
      "秧": 4780,
      "秩": 4781,
      "秬": 4782,
      "积": 4783,
      "称": 4784,
      "秸": 4785,
      "移": 4786,
      "秽": 4787,
      "秾": 4788,
      "稀": 4789,
      "稅": 4790,
      "程": 4791,
      "稍": 4792,
      "税": 4793,
      "稔": 4794,
      "稗": 4795,
      "稚": 4796,
      "稞": 4797,
      "稠": 4798,
      "稣": 4799,
      "種": 4800,
      "稱": 4801,
      "稳": 4802,
      "稷": 4803,
      "稹": 4804,
      "稻": 4805,
      "稼": 4806,
      "稽": 4807,
      "稿": 4808,
      "穆": 4809,
      "穇": 4810,
      "穉": 4811,
      "穌": 4812,
      "積": 4813,
      "穎": 4814,
      "穑": 4815,
      "穗": 4816,
      "穩": 4817,
      "穫": 4818,
      "穰": 4819,
      "穴": 4820,
      "究": 4821,
      "穷": 4822,
      "穹": 4823,
      "空": 4824,
      "穿": 4825,
      "突": 4826,
      "窃": 4827,
      "窄": 4828,
      "窈": 4829,
      "窋": 4830,
      "窍": 4831,
      "窑": 4832,
      "窒": 4833,
      "窕": 4834,
      "窖": 4835,
      "窗": 4836,
      "窘": 4837,
      "窜": 4838,
      "窝": 4839,
      "窟": 4840,
      "窠": 4841,
      "窣": 4842,
      "窥": 4843,
      "窦": 4844,
      "窨": 4845,
      "窮": 4846,
      "窸": 4847,
      "窿": 4848,
      "立": 4849,
      "竖": 4850,
      "站": 4851,
      "竞": 4852,
      "竟": 4853,
      "章": 4854,
      "竣": 4855,
      "竤": 4856,
      "童": 4857,
      "竦": 4858,
      "竭": 4859,
      "端": 4860,
      "競": 4861,
      "竹": 4862,
      "竺": 4863,
      "竽": 4864,
      "竿": 4865,
      "笃": 4866,
      "笆": 4867,
      "笈": 4868,
      "笋": 4869,
      "笏": 4870,
      "笑": 4871,
      "笔": 4872,
      "笕": 4873,
      "笙": 4874,
      "笛": 4875,
      "笞": 4876,
      "笠": 4877,
      "笤": 4878,
      "符": 4879,
      "笨": 4880,
      "笫": 4881,
      "第": 4882,
      "笮": 4883,
      "笺": 4884,
      "笼": 4885,
      "笾": 4886,
      "筆": 4887,
      "等": 4888,
      "筋": 4889,
      "筏": 4890,
      "筐": 4891,
      "筑": 4892,
      "筒": 4893,
      "答": 4894,
      "策": 4895,
      "筚": 4896,
      "筛": 4897,
      "筝": 4898,
      "筠": 4899,
      "筭": 4900,
      "筮": 4901,
      "筱": 4902,
      "筵": 4903,
      "筷": 4904,
      "筹": 4905,
      "签": 4906,
      "简": 4907,
      "箍": 4908,
      "箏": 4909,
      "箐": 4910,
      "箔": 4911,
      "箕": 4912,
      "算": 4913,
      "箜": 4914,
      "箝": 4915,
      "管": 4916,
      "箧": 4917,
      "箩": 4918,
      "箫": 4919,
      "箭": 4920,
      "箱": 4921,
      "箴": 4922,
      "節": 4923,
      "範": 4924,
      "篆": 4925,
      "篇": 4926,
      "築": 4927,
      "篌": 4928,
      "篑": 4929,
      "篓": 4930,
      "篙": 4931,
      "篝": 4932,
      "篡": 4933,
      "篩": 4934,
      "篮": 4935,
      "篱": 4936,
      "篷": 4937,
      "篾": 4938,
      "簇": 4939,
      "簋": 4940,
      "簌": 4941,
      "簟": 4942,
      "簡": 4943,
      "簧": 4944,
      "簪": 4945,
      "簰": 4946,
      "簸": 4947,
      "簿": 4948,
      "籀": 4949,
      "籁": 4950,
      "籌": 4951,
      "籍": 4952,
      "籤": 4953,
      "米": 4954,
      "类": 4955,
      "籽": 4956,
      "粄": 4957,
      "粉": 4958,
      "粑": 4959,
      "粒": 4960,
      "粕": 4961,
      "粗": 4962,
      "粘": 4963,
      "粜": 4964,
      "粟": 4965,
      "粤": 4966,
      "粥": 4967,
      "粪": 4968,
      "粮": 4969,
      "粱": 4970,
      "粲": 4971,
      "粳": 4972,
      "粹": 4973,
      "粼": 4974,
      "粽": 4975,
      "精": 4976,
      "粿": 4977,
      "糅": 4978,
      "糊": 4979,
      "糍": 4980,
      "糕": 4981,
      "糖": 4982,
      "糙": 4983,
      "糜": 4984,
      "糞": 4985,
      "糟": 4986,
      "糠": 4987,
      "糧": 4988,
      "糨": 4989,
      "糯": 4990,
      "系": 4991,
      "糾": 4992,
      "紀": 4993,
      "約": 4994,
      "紅": 4995,
      "紊": 4996,
      "納": 4997,
      "紐": 4998,
      "純": 4999,
      "紙": 5000,
      "級": 5001,
      "紛": 5002,
      "素": 5003,
      "紡": 5004,
      "索": 5005,
      "紥": 5006,
      "紧": 5007,
      "紫": 5008,
      "紬": 5009,
      "累": 5010,
      "細": 5011,
      "紹": 5012,
      "紺": 5013,
      "終": 5014,
      "組": 5015,
      "経": 5016,
      "結": 5017,
      "絕": 5018,
      "絡": 5019,
      "給": 5020,
      "絮": 5021,
      "統": 5022,
      "絲": 5023,
      "絷": 5024,
      "經": 5025,
      "綜": 5026,
      "綠": 5027,
      "綢": 5028,
      "綦": 5029,
      "維": 5030,
      "綱": 5031,
      "網": 5032,
      "綿": 5033,
      "緊": 5034,
      "緑": 5035,
      "緒": 5036,
      "線": 5037,
      "緣": 5038,
      "編": 5039,
      "緩": 5040,
      "練": 5041,
      "緻": 5042,
      "縣": 5043,
      "縫": 5044,
      "縮": 5045,
      "縱": 5046,
      "縻": 5047,
      "總": 5048,
      "績": 5049,
      "縿": 5050,
      "繁": 5051,
      "繇": 5052,
      "織": 5053,
      "繞": 5054,
      "繪": 5055,
      "繫": 5056,
      "繳": 5057,
      "繼": 5058,
      "纂": 5059,
      "續": 5060,
      "纏": 5061,
      "纕": 5062,
      "纖": 5063,
      "纟": 5064,
      "纠": 5065,
      "纡": 5066,
      "红": 5067,
      "纣": 5068,
      "纤": 5069,
      "纥": 5070,
      "约": 5071,
      "级": 5072,
      "纨": 5073,
      "纪": 5074,
      "纫": 5075,
      "纬": 5076,
      "纭": 5077,
      "纮": 5078,
      "纯": 5079,
      "纱": 5080,
      "纲": 5081,
      "纳": 5082,
      "纴": 5083,
      "纵": 5084,
      "纶": 5085,
      "纷": 5086,
      "纸": 5087,
      "纹": 5088,
      "纺": 5089,
      "纽": 5090,
      "纾": 5091,
      "线": 5092,
      "绀": 5093,
      "绂": 5094,
      "练": 5095,
      "组": 5096,
      "绅": 5097,
      "细": 5098,
      "织": 5099,
      "终": 5100,
      "绉": 5101,
      "绊": 5102,
      "绌": 5103,
      "绍": 5104,
      "绎": 5105,
      "经": 5106,
      "绑": 5107,
      "绒": 5108,
      "结": 5109,
      "绔": 5110,
      "绕": 5111,
      "绘": 5112,
      "给": 5113,
      "绚": 5114,
      "绛": 5115,
      "络": 5116,
      "绝": 5117,
      "绞": 5118,
      "统": 5119,
      "绡": 5120,
      "绢": 5121,
      "绣": 5122,
      "绥": 5123,
      "绦": 5124,
      "继": 5125,
      "绩": 5126,
      "绪": 5127,
      "绫": 5128,
      "续": 5129,
      "绮": 5130,
      "绯": 5131,
      "绰": 5132,
      "绳": 5133,
      "维": 5134,
      "绵": 5135,
      "绶": 5136,
      "绷": 5137,
      "绸": 5138,
      "绺": 5139,
      "综": 5140,
      "绽": 5141,
      "绾": 5142,
      "绿": 5143,
      "缀": 5144,
      "缃": 5145,
      "缄": 5146,
      "缅": 5147,
      "缆": 5148,
      "缇": 5149,
      "缈": 5150,
      "缉": 5151,
      "缎": 5152,
      "缓": 5153,
      "缔": 5154,
      "缕": 5155,
      "编": 5156,
      "缘": 5157,
      "缙": 5158,
      "缚": 5159,
      "缜": 5160,
      "缝": 5161,
      "缟": 5162,
      "缠": 5163,
      "缢": 5164,
      "缤": 5165,
      "缥": 5166,
      "缦": 5167,
      "缨": 5168,
      "缩": 5169,
      "缪": 5170,
      "缫": 5171,
      "缬": 5172,
      "缭": 5173,
      "缮": 5174,
      "缰": 5175,
      "缴": 5176,
      "缶": 5177,
      "缸": 5178,
      "缺": 5179,
      "罂": 5180,
      "罄": 5181,
      "罐": 5182,
      "网": 5183,
      "罔": 5184,
      "罕": 5185,
      "罗": 5186,
      "罚": 5187,
      "罝": 5188,
      "罡": 5189,
      "罢": 5190,
      "罩": 5191,
      "罪": 5192,
      "置": 5193,
      "署": 5194,
      "罵": 5195,
      "罷": 5196,
      "罹": 5197,
      "羁": 5198,
      "羅": 5199,
      "羊": 5200,
      "羌": 5201,
      "美": 5202,
      "羔": 5203,
      "羚": 5204,
      "羞": 5205,
      "羟": 5206,
      "羡": 5207,
      "群": 5208,
      "羧": 5209,
      "義": 5210,
      "羯": 5211,
      "羰": 5212,
      "羲": 5213,
      "羸": 5214,
      "羹": 5215,
      "羽": 5216,
      "羿": 5217,
      "翁": 5218,
      "翃": 5219,
      "翅": 5220,
      "翊": 5221,
      "翌": 5222,
      "翎": 5223,
      "習": 5224,
      "翔": 5225,
      "翘": 5226,
      "翜": 5227,
      "翟": 5228,
      "翠": 5229,
      "翡": 5230,
      "翥": 5231,
      "翦": 5232,
      "翩": 5233,
      "翰": 5234,
      "翱": 5235,
      "翳": 5236,
      "翺": 5237,
      "翻": 5238,
      "翼": 5239,
      "耀": 5240,
      "老": 5241,
      "考": 5242,
      "耄": 5243,
      "者": 5244,
      "耆": 5245,
      "耋": 5246,
      "而": 5247,
      "耍": 5248,
      "耐": 5249,
      "耒": 5250,
      "耕": 5251,
      "耗": 5252,
      "耘": 5253,
      "耙": 5254,
      "耜": 5255,
      "耦": 5256,
      "耧": 5257,
      "耨": 5258,
      "耳": 5259,
      "耵": 5260,
      "耶": 5261,
      "耷": 5262,
      "耸": 5263,
      "耻": 5264,
      "耽": 5265,
      "耿": 5266,
      "聂": 5267,
      "聆": 5268,
      "聊": 5269,
      "聋": 5270,
      "职": 5271,
      "聍": 5272,
      "联": 5273,
      "聖": 5274,
      "聘": 5275,
      "聚": 5276,
      "聞": 5277,
      "聩": 5278,
      "聪": 5279,
      "聯": 5280,
      "聲": 5281,
      "職": 5282,
      "聽": 5283,
      "聾": 5284,
      "聿": 5285,
      "肃": 5286,
      "肆": 5287,
      "肇": 5288,
      "肉": 5289,
      "肋": 5290,
      "肌": 5291,
      "肓": 5292,
      "肖": 5293,
      "肘": 5294,
      "肚": 5295,
      "肛": 5296,
      "肝": 5297,
      "肟": 5298,
      "肠": 5299,
      "股": 5300,
      "肢": 5301,
      "肤": 5302,
      "肥": 5303,
      "肩": 5304,
      "肪": 5305,
      "肮": 5306,
      "肯": 5307,
      "肱": 5308,
      "育": 5309,
      "肴": 5310,
      "肺": 5311,
      "肼": 5312,
      "肽": 5313,
      "肾": 5314,
      "肿": 5315,
      "胀": 5316,
      "胁": 5317,
      "胃": 5318,
      "胄": 5319,
      "胆": 5320,
      "背": 5321,
      "胍": 5322,
      "胎": 5323,
      "胖": 5324,
      "胗": 5325,
      "胙": 5326,
      "胚": 5327,
      "胛": 5328,
      "胜": 5329,
      "胝": 5330,
      "胞": 5331,
      "胡": 5332,
      "胤": 5333,
      "胥": 5334,
      "胧": 5335,
      "胪": 5336,
      "胫": 5337,
      "胬": 5338,
      "胭": 5339,
      "胯": 5340,
      "胰": 5341,
      "胱": 5342,
      "胳": 5343,
      "胴": 5344,
      "胶": 5345,
      "胸": 5346,
      "胺": 5347,
      "胼": 5348,
      "能": 5349,
      "脂": 5350,
      "脅": 5351,
      "脆": 5352,
      "脈": 5353,
      "脉": 5354,
      "脊": 5355,
      "脍": 5356,
      "脏": 5357,
      "脐": 5358,
      "脑": 5359,
      "脓": 5360,
      "脖": 5361,
      "脘": 5362,
      "脚": 5363,
      "脩": 5364,
      "脫": 5365,
      "脯": 5366,
      "脱": 5367,
      "脲": 5368,
      "脷": 5369,
      "脸": 5370,
      "脹": 5371,
      "脾": 5372,
      "腆": 5373,
      "腇": 5374,
      "腈": 5375,
      "腊": 5376,
      "腋": 5377,
      "腌": 5378,
      "腎": 5379,
      "腐": 5380,
      "腑": 5381,
      "腓": 5382,
      "腔": 5383,
      "腕": 5384,
      "腘": 5385,
      "腠": 5386,
      "腥": 5387,
      "腦": 5388,
      "腧": 5389,
      "腩": 5390,
      "腫": 5391,
      "腭": 5392,
      "腮": 5393,
      "腰": 5394,
      "腱": 5395,
      "腳": 5396,
      "腴": 5397,
      "腸": 5398,
      "腹": 5399,
      "腺": 5400,
      "腻": 5401,
      "腼": 5402,
      "腾": 5403,
      "腿": 5404,
      "膀": 5405,
      "膈": 5406,
      "膊": 5407,
      "膏": 5408,
      "膑": 5409,
      "膘": 5410,
      "膚": 5411,
      "膛": 5412,
      "膜": 5413,
      "膝": 5414,
      "膠": 5415,
      "膦": 5416,
      "膨": 5417,
      "膩": 5418,
      "膳": 5419,
      "膺": 5420,
      "膻": 5421,
      "膽": 5422,
      "臀": 5423,
      "臂": 5424,
      "臃": 5425,
      "臆": 5426,
      "臉": 5427,
      "臑": 5428,
      "臟": 5429,
      "臣": 5430,
      "臧": 5431,
      "臨": 5432,
      "自": 5433,
      "臭": 5434,
      "至": 5435,
      "致": 5436,
      "臺": 5437,
      "臻": 5438,
      "臼": 5439,
      "臾": 5440,
      "舀": 5441,
      "舅": 5442,
      "舆": 5443,
      "與": 5444,
      "興": 5445,
      "舉": 5446,
      "舊": 5447,
      "舌": 5448,
      "舍": 5449,
      "舐": 5450,
      "舒": 5451,
      "舔": 5452,
      "舖": 5453,
      "舜": 5454,
      "舞": 5455,
      "舟": 5456,
      "航": 5457,
      "般": 5458,
      "舰": 5459,
      "舱": 5460,
      "舵": 5461,
      "舶": 5462,
      "舸": 5463,
      "船": 5464,
      "艇": 5465,
      "艉": 5466,
      "艘": 5467,
      "艞": 5468,
      "艦": 5469,
      "艮": 5470,
      "良": 5471,
      "艰": 5472,
      "艱": 5473,
      "色": 5474,
      "艳": 5475,
      "艷": 5476,
      "艺": 5477,
      "艾": 5478,
      "节": 5479,
      "芃": 5480,
      "芈": 5481,
      "芊": 5482,
      "芋": 5483,
      "芍": 5484,
      "芎": 5485,
      "芒": 5486,
      "芗": 5487,
      "芘": 5488,
      "芙": 5489,
      "芜": 5490,
      "芝": 5491,
      "芟": 5492,
      "芠": 5493,
      "芡": 5494,
      "芥": 5495,
      "芦": 5496,
      "芨": 5497,
      "芩": 5498,
      "芪": 5499,
      "芬": 5500,
      "芭": 5501,
      "芮": 5502,
      "芯": 5503,
      "花": 5504,
      "芳": 5505,
      "芷": 5506,
      "芸": 5507,
      "芹": 5508,
      "芽": 5509,
      "芾": 5510,
      "苁": 5511,
      "苄": 5512,
      "苇": 5513,
      "苋": 5514,
      "苍": 5515,
      "苎": 5516,
      "苏": 5517,
      "苑": 5518,
      "苒": 5519,
      "苓": 5520,
      "苔": 5521,
      "苗": 5522,
      "苘": 5523,
      "苛": 5524,
      "苜": 5525,
      "苞": 5526,
      "苟": 5527,
      "苡": 5528,
      "苣": 5529,
      "若": 5530,
      "苦": 5531,
      "苫": 5532,
      "苯": 5533,
      "英": 5534,
      "苴": 5535,
      "苷": 5536,
      "苹": 5537,
      "苻": 5538,
      "茁": 5539,
      "茂": 5540,
      "范": 5541,
      "茄": 5542,
      "茅": 5543,
      "茉": 5544,
      "茎": 5545,
      "茏": 5546,
      "茔": 5547,
      "茗": 5548,
      "茜": 5549,
      "茝": 5550,
      "茧": 5551,
      "茨": 5552,
      "茫": 5553,
      "茬": 5554,
      "茭": 5555,
      "茯": 5556,
      "茱": 5557,
      "茲": 5558,
      "茴": 5559,
      "茵": 5560,
      "茶": 5561,
      "茸": 5562,
      "茹": 5563,
      "茼": 5564,
      "荀": 5565,
      "荃": 5566,
      "荆": 5567,
      "草": 5568,
      "荊": 5569,
      "荏": 5570,
      "荐": 5571,
      "荑": 5572,
      "荒": 5573,
      "荔": 5574,
      "荚": 5575,
      "荞": 5576,
      "荟": 5577,
      "荠": 5578,
      "荡": 5579,
      "荣": 5580,
      "荤": 5581,
      "荥": 5582,
      "荧": 5583,
      "荨": 5584,
      "荪": 5585,
      "荫": 5586,
      "药": 5587,
      "荷": 5588,
      "荸": 5589,
      "荻": 5590,
      "荼": 5591,
      "莅": 5592,
      "莆": 5593,
      "莉": 5594,
      "莊": 5595,
      "莎": 5596,
      "莒": 5597,
      "莓": 5598,
      "莘": 5599,
      "莛": 5600,
      "莜": 5601,
      "莞": 5602,
      "莠": 5603,
      "莫": 5604,
      "莱": 5605,
      "莲": 5606,
      "莳": 5607,
      "莴": 5608,
      "获": 5609,
      "莹": 5610,
      "莺": 5611,
      "莼": 5612,
      "莽": 5613,
      "菁": 5614,
      "菇": 5615,
      "菊": 5616,
      "菌": 5617,
      "菏": 5618,
      "菑": 5619,
      "菔": 5620,
      "菖": 5621,
      "菘": 5622,
      "菜": 5623,
      "菟": 5624,
      "菠": 5625,
      "菡": 5626,
      "菩": 5627,
      "華": 5628,
      "菱": 5629,
      "菲": 5630,
      "菵": 5631,
      "菸": 5632,
      "菽": 5633,
      "萃": 5634,
      "萄": 5635,
      "萆": 5636,
      "萊": 5637,
      "萋": 5638,
      "萌": 5639,
      "萍": 5640,
      "萎": 5641,
      "萜": 5642,
      "萝": 5643,
      "萤": 5644,
      "营": 5645,
      "萦": 5646,
      "萧": 5647,
      "萨": 5648,
      "萬": 5649,
      "萱": 5650,
      "萸": 5651,
      "萼": 5652,
      "落": 5653,
      "葆": 5654,
      "葉": 5655,
      "葎": 5656,
      "葑": 5657,
      "著": 5658,
      "葚": 5659,
      "葛": 5660,
      "葡": 5661,
      "董": 5662,
      "葩": 5663,
      "葫": 5664,
      "葬": 5665,
      "葭": 5666,
      "葱": 5667,
      "葵": 5668,
      "葺": 5669,
      "蒂": 5670,
      "蒋": 5671,
      "蒌": 5672,
      "蒗": 5673,
      "蒙": 5674,
      "蒜": 5675,
      "蒡": 5676,
      "蒯": 5677,
      "蒲": 5678,
      "蒴": 5679,
      "蒸": 5680,
      "蒹": 5681,
      "蒺": 5682,
      "蒽": 5683,
      "蒿": 5684,
      "蓁": 5685,
      "蓄": 5686,
      "蓉": 5687,
      "蓋": 5688,
      "蓍": 5689,
      "蓐": 5690,
      "蓑": 5691,
      "蓓": 5692,
      "蓖": 5693,
      "蓝": 5694,
      "蓟": 5695,
      "蓣": 5696,
      "蓥": 5697,
      "蓦": 5698,
      "蓬": 5699,
      "蓰": 5700,
      "蓼": 5701,
      "蓿": 5702,
      "蔑": 5703,
      "蔓": 5704,
      "蔔": 5705,
      "蔗": 5706,
      "蔚": 5707,
      "蔡": 5708,
      "蔫": 5709,
      "蔬": 5710,
      "蔷": 5711,
      "蔸": 5712,
      "蔺": 5713,
      "蔻": 5714,
      "蔼": 5715,
      "蔽": 5716,
      "蕃": 5717,
      "蕉": 5718,
      "蕊": 5719,
      "蕙": 5720,
      "蕞": 5721,
      "蕤": 5722,
      "蕨": 5723,
      "蕲": 5724,
      "蕴": 5725,
      "蕹": 5726,
      "蕻": 5727,
      "蕾": 5728,
      "薄": 5729,
      "薅": 5730,
      "薇": 5731,
      "薏": 5732,
      "薛": 5733,
      "薜": 5734,
      "薢": 5735,
      "薦": 5736,
      "薩": 5737,
      "薪": 5738,
      "薮": 5739,
      "薯": 5740,
      "薰": 5741,
      "薹": 5742,
      "藁": 5743,
      "藉": 5744,
      "藍": 5745,
      "藏": 5746,
      "藐": 5747,
      "藓": 5748,
      "藕": 5749,
      "藜": 5750,
      "藝": 5751,
      "藤": 5752,
      "藥": 5753,
      "藦": 5754,
      "藩": 5755,
      "藺": 5756,
      "藻": 5757,
      "藿": 5758,
      "蘇": 5759,
      "蘊": 5760,
      "蘑": 5761,
      "蘖": 5762,
      "蘧": 5763,
      "蘭": 5764,
      "蘸": 5765,
      "蘼": 5766,
      "蘿": 5767,
      "虎": 5768,
      "虏": 5769,
      "虐": 5770,
      "虑": 5771,
      "虔": 5772,
      "處": 5773,
      "虚": 5774,
      "虛": 5775,
      "虞": 5776,
      "號": 5777,
      "虢": 5778,
      "虫": 5779,
      "虬": 5780,
      "虱": 5781,
      "虹": 5782,
      "虻": 5783,
      "虽": 5784,
      "虾": 5785,
      "蚀": 5786,
      "蚁": 5787,
      "蚂": 5788,
      "蚊": 5789,
      "蚌": 5790,
      "蚓": 5791,
      "蚕": 5792,
      "蚜": 5793,
      "蚝": 5794,
      "蚡": 5795,
      "蚣": 5796,
      "蚤": 5797,
      "蚧": 5798,
      "蚩": 5799,
      "蚪": 5800,
      "蚯": 5801,
      "蚱": 5802,
      "蚴": 5803,
      "蚶": 5804,
      "蚺": 5805,
      "蛀": 5806,
      "蛄": 5807,
      "蛆": 5808,
      "蛇": 5809,
      "蛉": 5810,
      "蛊": 5811,
      "蛋": 5812,
      "蛎": 5813,
      "蛏": 5814,
      "蛔": 5815,
      "蛙": 5816,
      "蛛": 5817,
      "蛟": 5818,
      "蛤": 5819,
      "蛭": 5820,
      "蛮": 5821,
      "蛰": 5822,
      "蛳": 5823,
      "蛸": 5824,
      "蛹": 5825,
      "蛻": 5826,
      "蛾": 5827,
      "蜀": 5828,
      "蜂": 5829,
      "蜃": 5830,
      "蜇": 5831,
      "蜈": 5832,
      "蜉": 5833,
      "蜊": 5834,
      "蜍": 5835,
      "蜒": 5836,
      "蜓": 5837,
      "蜕": 5838,
      "蜗": 5839,
      "蜘": 5840,
      "蜚": 5841,
      "蜜": 5842,
      "蜞": 5843,
      "蜡": 5844,
      "蜢": 5845,
      "蜥": 5846,
      "蜩": 5847,
      "蜮": 5848,
      "蜱": 5849,
      "蜴": 5850,
      "蜷": 5851,
      "蜻": 5852,
      "蜿": 5853,
      "蝇": 5854,
      "蝉": 5855,
      "蝌": 5856,
      "蝎": 5857,
      "蝕": 5858,
      "蝗": 5859,
      "蝙": 5860,
      "蝠": 5861,
      "蝣": 5862,
      "蝦": 5863,
      "蝴": 5864,
      "蝶": 5865,
      "蝽": 5866,
      "螀": 5867,
      "螂": 5868,
      "螃": 5869,
      "螈": 5870,
      "融": 5871,
      "螟": 5872,
      "螨": 5873,
      "螭": 5874,
      "螯": 5875,
      "螳": 5876,
      "螵": 5877,
      "螺": 5878,
      "蟀": 5879,
      "蟆": 5880,
      "蟊": 5881,
      "蟋": 5882,
      "蟑": 5883,
      "蟒": 5884,
      "蟛": 5885,
      "蟲": 5886,
      "蟹": 5887,
      "蟾": 5888,
      "蠍": 5889,
      "蠕": 5890,
      "蠡": 5891,
      "蠢": 5892,
      "蠹": 5893,
      "血": 5894,
      "衄": 5895,
      "衅": 5896,
      "行": 5897,
      "衍": 5898,
      "衎": 5899,
      "術": 5900,
      "衔": 5901,
      "街": 5902,
      "衙": 5903,
      "衛": 5904,
      "衝": 5905,
      "衡": 5906,
      "衢": 5907,
      "衣": 5908,
      "补": 5909,
      "表": 5910,
      "衫": 5911,
      "衬": 5912,
      "衮": 5913,
      "衰": 5914,
      "衲": 5915,
      "衷": 5916,
      "衽": 5917,
      "袁": 5918,
      "袂": 5919,
      "袄": 5920,
      "袅": 5921,
      "袈": 5922,
      "袋": 5923,
      "袍": 5924,
      "袒": 5925,
      "袖": 5926,
      "袜": 5927,
      "袤": 5928,
      "被": 5929,
      "袭": 5930,
      "袱": 5931,
      "裁": 5932,
      "裂": 5933,
      "装": 5934,
      "裆": 5935,
      "裏": 5936,
      "裒": 5937,
      "裔": 5938,
      "裕": 5939,
      "裘": 5940,
      "裙": 5941,
      "補": 5942,
      "裝": 5943,
      "裟": 5944,
      "裡": 5945,
      "裣": 5946,
      "裤": 5947,
      "裨": 5948,
      "裱": 5949,
      "裳": 5950,
      "裴": 5951,
      "裸": 5952,
      "裹": 5953,
      "製": 5954,
      "裾": 5955,
      "褀": 5956,
      "褂": 5957,
      "複": 5958,
      "褐": 5959,
      "褒": 5960,
      "褓": 5961,
      "褔": 5962,
      "褚": 5963,
      "褛": 5964,
      "褥": 5965,
      "褪": 5966,
      "褴": 5967,
      "褶": 5968,
      "襁": 5969,
      "襄": 5970,
      "襞": 5971,
      "襟": 5972,
      "襦": 5973,
      "襲": 5974,
      "西": 5975,
      "要": 5976,
      "覃": 5977,
      "覆": 5978,
      "見": 5979,
      "規": 5980,
      "視": 5981,
      "覚": 5982,
      "親": 5983,
      "観": 5984,
      "覺": 5985,
      "覽": 5986,
      "觀": 5987,
      "见": 5988,
      "观": 5989,
      "规": 5990,
      "觅": 5991,
      "视": 5992,
      "览": 5993,
      "觉": 5994,
      "觊": 5995,
      "觎": 5996,
      "觐": 5997,
      "觑": 5998,
      "角": 5999,
      "觜": 6000,
      "觞": 6001,
      "解": 6002,
      "觥": 6003,
      "触": 6004,
      "觸": 6005,
      "言": 6006,
      "訂": 6007,
      "訇": 6008,
      "計": 6009,
      "訊": 6010,
      "討": 6011,
      "訓": 6012,
      "託": 6013,
      "記": 6014,
      "訝": 6015,
      "訟": 6016,
      "訢": 6017,
      "訪": 6018,
      "設": 6019,
      "許": 6020,
      "訴": 6021,
      "診": 6022,
      "註": 6023,
      "証": 6024,
      "評": 6025,
      "詝": 6026,
      "詞": 6027,
      "詠": 6028,
      "詢": 6029,
      "試": 6030,
      "詩": 6031,
      "詰": 6032,
      "話": 6033,
      "該": 6034,
      "詳": 6035,
      "詹": 6036,
      "誉": 6037,
      "誊": 6038,
      "誌": 6039,
      "認": 6040,
      "誓": 6041,
      "誕": 6042,
      "誘": 6043,
      "語": 6044,
      "誠": 6045,
      "誤": 6046,
      "誦": 6047,
      "誨": 6048,
      "說": 6049,
      "説": 6050,
      "読": 6051,
      "誰": 6052,
      "課": 6053,
      "調": 6054,
      "談": 6055,
      "請": 6056,
      "論": 6057,
      "諝": 6058,
      "諧": 6059,
      "諮": 6060,
      "諸": 6061,
      "諾": 6062,
      "謀": 6063,
      "謂": 6064,
      "謇": 6065,
      "謊": 6066,
      "講": 6067,
      "謝": 6068,
      "謫": 6069,
      "證": 6070,
      "識": 6071,
      "譜": 6072,
      "警": 6073,
      "譬": 6074,
      "譯": 6075,
      "議": 6076,
      "護": 6077,
      "譽": 6078,
      "讀": 6079,
      "變": 6080,
      "讓": 6081,
      "讚": 6082,
      "计": 6083,
      "订": 6084,
      "讣": 6085,
      "认": 6086,
      "讥": 6087,
      "讦": 6088,
      "讨": 6089,
      "让": 6090,
      "讪": 6091,
      "讫": 6092,
      "训": 6093,
      "议": 6094,
      "讯": 6095,
      "记": 6096,
      "讲": 6097,
      "讳": 6098,
      "讴": 6099,
      "讶": 6100,
      "讷": 6101,
      "许": 6102,
      "讹": 6103,
      "论": 6104,
      "讼": 6105,
      "讽": 6106,
      "设": 6107,
      "访": 6108,
      "诀": 6109,
      "证": 6110,
      "诂": 6111,
      "诃": 6112,
      "评": 6113,
      "诅": 6114,
      "识": 6115,
      "诈": 6116,
      "诉": 6117,
      "诊": 6118,
      "诋": 6119,
      "诌": 6120,
      "词": 6121,
      "诏": 6122,
      "译": 6123,
      "诓": 6124,
      "诔": 6125,
      "试": 6126,
      "诖": 6127,
      "诗": 6128,
      "诘": 6129,
      "诙": 6130,
      "诚": 6131,
      "诛": 6132,
      "话": 6133,
      "诞": 6134,
      "诟": 6135,
      "诠": 6136,
      "诡": 6137,
      "询": 6138,
      "诣": 6139,
      "诤": 6140,
      "该": 6141,
      "详": 6142,
      "诧": 6143,
      "诨": 6144,
      "诩": 6145,
      "诫": 6146,
      "诬": 6147,
      "语": 6148,
      "诮": 6149,
      "误": 6150,
      "诰": 6151,
      "诱": 6152,
      "诲": 6153,
      "诳": 6154,
      "说": 6155,
      "诵": 6156,
      "诶": 6157,
      "请": 6158,
      "诸": 6159,
      "诺": 6160,
      "读": 6161,
      "诼": 6162,
      "诽": 6163,
      "课": 6164,
      "诿": 6165,
      "谀": 6166,
      "谁": 6167,
      "谂": 6168,
      "调": 6169,
      "谄": 6170,
      "谅": 6171,
      "谆": 6172,
      "谈": 6173,
      "谊": 6174,
      "谋": 6175,
      "谍": 6176,
      "谎": 6177,
      "谏": 6178,
      "谐": 6179,
      "谑": 6180,
      "谒": 6181,
      "谓": 6182,
      "谔": 6183,
      "谕": 6184,
      "谗": 6185,
      "谙": 6186,
      "谚": 6187,
      "谛": 6188,
      "谜": 6189,
      "谟": 6190,
      "谡": 6191,
      "谢": 6192,
      "谣": 6193,
      "谤": 6194,
      "谥": 6195,
      "谦": 6196,
      "谧": 6197,
      "谨": 6198,
      "谩": 6199,
      "谪": 6200,
      "谬": 6201,
      "谭": 6202,
      "谱": 6203,
      "谲": 6204,
      "谳": 6205,
      "谴": 6206,
      "谷": 6207,
      "谿": 6208,
      "豁": 6209,
      "豆": 6210,
      "豇": 6211,
      "豉": 6212,
      "豌": 6213,
      "豐": 6214,
      "豔": 6215,
      "豕": 6216,
      "豗": 6217,
      "豚": 6218,
      "象": 6219,
      "豢": 6220,
      "豪": 6221,
      "豫": 6222,
      "豬": 6223,
      "豸": 6224,
      "豹": 6225,
      "豺": 6226,
      "貂": 6227,
      "貌": 6228,
      "貓": 6229,
      "貝": 6230,
      "貞": 6231,
      "負": 6232,
      "財": 6233,
      "貢": 6234,
      "貧": 6235,
      "貨": 6236,
      "貪": 6237,
      "貫": 6238,
      "責": 6239,
      "貴": 6240,
      "買": 6241,
      "貸": 6242,
      "費": 6243,
      "貼": 6244,
      "貿": 6245,
      "資": 6246,
      "賈": 6247,
      "賓": 6248,
      "賜": 6249,
      "賞": 6250,
      "賢": 6251,
      "賣": 6252,
      "質": 6253,
      "賬": 6254,
      "賴": 6255,
      "購": 6256,
      "賽": 6257,
      "賾": 6258,
      "贊": 6259,
      "贏": 6260,
      "贝": 6261,
      "贞": 6262,
      "负": 6263,
      "贡": 6264,
      "财": 6265,
      "责": 6266,
      "贤": 6267,
      "败": 6268,
      "账": 6269,
      "货": 6270,
      "质": 6271,
      "贩": 6272,
      "贪": 6273,
      "贫": 6274,
      "贬": 6275,
      "购": 6276,
      "贮": 6277,
      "贯": 6278,
      "贰": 6279,
      "贱": 6280,
      "贲": 6281,
      "贴": 6282,
      "贵": 6283,
      "贶": 6284,
      "贷": 6285,
      "贸": 6286,
      "费": 6287,
      "贺": 6288,
      "贻": 6289,
      "贼": 6290,
      "贾": 6291,
      "贿": 6292,
      "赁": 6293,
      "赂": 6294,
      "赃": 6295,
      "资": 6296,
      "赅": 6297,
      "赈": 6298,
      "赉": 6299,
      "赊": 6300,
      "赋": 6301,
      "赌": 6302,
      "赍": 6303,
      "赎": 6304,
      "赏": 6305,
      "赐": 6306,
      "赓": 6307,
      "赔": 6308,
      "赖": 6309,
      "赘": 6310,
      "赚": 6311,
      "赛": 6312,
      "赞": 6313,
      "赟": 6314,
      "赠": 6315,
      "赡": 6316,
      "赢": 6317,
      "赣": 6318,
      "赤": 6319,
      "赦": 6320,
      "赧": 6321,
      "赫": 6322,
      "赭": 6323,
      "走": 6324,
      "赳": 6325,
      "赴": 6326,
      "赵": 6327,
      "赶": 6328,
      "起": 6329,
      "趁": 6330,
      "趄": 6331,
      "超": 6332,
      "越": 6333,
      "趋": 6334,
      "趔": 6335,
      "趙": 6336,
      "趟": 6337,
      "趣": 6338,
      "趨": 6339,
      "足": 6340,
      "趴": 6341,
      "趸": 6342,
      "趺": 6343,
      "趾": 6344,
      "跃": 6345,
      "跄": 6346,
      "跆": 6347,
      "跋": 6348,
      "跌": 6349,
      "跎": 6350,
      "跏": 6351,
      "跑": 6352,
      "跖": 6353,
      "跗": 6354,
      "跚": 6355,
      "跛": 6356,
      "距": 6357,
      "跟": 6358,
      "跡": 6359,
      "跣": 6360,
      "跤": 6361,
      "跨": 6362,
      "跪": 6363,
      "跬": 6364,
      "路": 6365,
      "跳": 6366,
      "践": 6367,
      "跶": 6368,
      "跷": 6369,
      "跹": 6370,
      "跺": 6371,
      "跻": 6372,
      "踉": 6373,
      "踊": 6374,
      "踌": 6375,
      "踏": 6376,
      "踐": 6377,
      "踔": 6378,
      "踝": 6379,
      "踞": 6380,
      "踢": 6381,
      "踩": 6382,
      "踪": 6383,
      "踮": 6384,
      "踯": 6385,
      "踱": 6386,
      "踵": 6387,
      "踹": 6388,
      "蹁": 6389,
      "蹂": 6390,
      "蹄": 6391,
      "蹇": 6392,
      "蹈": 6393,
      "蹉": 6394,
      "蹊": 6395,
      "蹋": 6396,
      "蹒": 6397,
      "蹚": 6398,
      "蹟": 6399,
      "蹤": 6400,
      "蹦": 6401,
      "蹬": 6402,
      "蹭": 6403,
      "蹲": 6404,
      "蹴": 6405,
      "蹶": 6406,
      "蹺": 6407,
      "蹿": 6408,
      "躁": 6409,
      "躅": 6410,
      "躇": 6411,
      "躏": 6412,
      "身": 6413,
      "躬": 6414,
      "躯": 6415,
      "躲": 6416,
      "躺": 6417,
      "軀": 6418,
      "車": 6419,
      "軌": 6420,
      "軍": 6421,
      "軎": 6422,
      "軟": 6423,
      "較": 6424,
      "載": 6425,
      "輔": 6426,
      "輕": 6427,
      "輛": 6428,
      "輩": 6429,
      "輪": 6430,
      "輸": 6431,
      "輻": 6432,
      "轉": 6433,
      "车": 6434,
      "轧": 6435,
      "轨": 6436,
      "轩": 6437,
      "轫": 6438,
      "转": 6439,
      "轭": 6440,
      "轮": 6441,
      "软": 6442,
      "轰": 6443,
      "轱": 6444,
      "轲": 6445,
      "轳": 6446,
      "轴": 6447,
      "轶": 6448,
      "轻": 6449,
      "轼": 6450,
      "载": 6451,
      "轾": 6452,
      "轿": 6453,
      "较": 6454,
      "辄": 6455,
      "辅": 6456,
      "辆": 6457,
      "辇": 6458,
      "辈": 6459,
      "辉": 6460,
      "辊": 6461,
      "辋": 6462,
      "辍": 6463,
      "辎": 6464,
      "辏": 6465,
      "辐": 6466,
      "辑": 6467,
      "输": 6468,
      "辕": 6469,
      "辖": 6470,
      "辗": 6471,
      "辘": 6472,
      "辙": 6473,
      "辛": 6474,
      "辜": 6475,
      "辞": 6476,
      "辟": 6477,
      "辣": 6478,
      "辦": 6479,
      "辧": 6480,
      "辨": 6481,
      "辩": 6482,
      "辫": 6483,
      "辭": 6484,
      "辰": 6485,
      "辱": 6486,
      "農": 6487,
      "边": 6488,
      "込": 6489,
      "辽": 6490,
      "达": 6491,
      "迁": 6492,
      "迂": 6493,
      "迄": 6494,
      "迅": 6495,
      "过": 6496,
      "迈": 6497,
      "迎": 6498,
      "运": 6499,
      "近": 6500,
      "返": 6501,
      "还": 6502,
      "这": 6503,
      "进": 6504,
      "远": 6505,
      "违": 6506,
      "连": 6507,
      "迟": 6508,
      "迤": 6509,
      "迥": 6510,
      "迦": 6511,
      "迨": 6512,
      "迩": 6513,
      "迪": 6514,
      "迫": 6515,
      "迭": 6516,
      "迮": 6517,
      "述": 6518,
      "迳": 6519,
      "迴": 6520,
      "迷": 6521,
      "迸": 6522,
      "迹": 6523,
      "追": 6524,
      "退": 6525,
      "送": 6526,
      "适": 6527,
      "逃": 6528,
      "逄": 6529,
      "逅": 6530,
      "逆": 6531,
      "选": 6532,
      "逊": 6533,
      "逍": 6534,
      "透": 6535,
      "逐": 6536,
      "递": 6537,
      "途": 6538,
      "逖": 6539,
      "逗": 6540,
      "這": 6541,
      "通": 6542,
      "逛": 6543,
      "逝": 6544,
      "逞": 6545,
      "速": 6546,
      "造": 6547,
      "逡": 6548,
      "逢": 6549,
      "連": 6550,
      "逮": 6551,
      "週": 6552,
      "進": 6553,
      "逵": 6554,
      "逶": 6555,
      "逸": 6556,
      "逻": 6557,
      "逼": 6558,
      "逾": 6559,
      "遁": 6560,
      "遂": 6561,
      "遇": 6562,
      "遊": 6563,
      "運": 6564,
      "遍": 6565,
      "過": 6566,
      "遏": 6567,
      "遐": 6568,
      "遑": 6569,
      "遒": 6570,
      "道": 6571,
      "達": 6572,
      "違": 6573,
      "遗": 6574,
      "遙": 6575,
      "遛": 6576,
      "遞": 6577,
      "遠": 6578,
      "遢": 6579,
      "遣": 6580,
      "遥": 6581,
      "遨": 6582,
      "適": 6583,
      "遭": 6584,
      "遮": 6585,
      "遲": 6586,
      "遴": 6587,
      "遵": 6588,
      "遷": 6589,
      "選": 6590,
      "遺": 6591,
      "遽": 6592,
      "避": 6593,
      "邀": 6594,
      "邁": 6595,
      "邂": 6596,
      "邃": 6597,
      "還": 6598,
      "邈": 6599,
      "邊": 6600,
      "邋": 6601,
      "邑": 6602,
      "邓": 6603,
      "邕": 6604,
      "邗": 6605,
      "邛": 6606,
      "邢": 6607,
      "那": 6608,
      "邦": 6609,
      "邨": 6610,
      "邪": 6611,
      "邬": 6612,
      "邮": 6613,
      "邯": 6614,
      "邰": 6615,
      "邱": 6616,
      "邳": 6617,
      "邴": 6618,
      "邵": 6619,
      "邸": 6620,
      "邹": 6621,
      "邺": 6622,
      "邻": 6623,
      "邽": 6624,
      "郁": 6625,
      "郃": 6626,
      "郄": 6627,
      "郊": 6628,
      "郎": 6629,
      "郏": 6630,
      "郑": 6631,
      "郗": 6632,
      "郜": 6633,
      "郝": 6634,
      "郡": 6635,
      "郢": 6636,
      "郦": 6637,
      "郧": 6638,
      "部": 6639,
      "郫": 6640,
      "郭": 6641,
      "郯": 6642,
      "郴": 6643,
      "郵": 6644,
      "郷": 6645,
      "郸": 6646,
      "都": 6647,
      "郿": 6648,
      "鄂": 6649,
      "鄉": 6650,
      "鄗": 6651,
      "鄙": 6652,
      "鄞": 6653,
      "鄢": 6654,
      "鄣": 6655,
      "鄭": 6656,
      "鄯": 6657,
      "鄰": 6658,
      "鄱": 6659,
      "酉": 6660,
      "酊": 6661,
      "酋": 6662,
      "酌": 6663,
      "配": 6664,
      "酐": 6665,
      "酒": 6666,
      "酗": 6667,
      "酚": 6668,
      "酝": 6669,
      "酞": 6670,
      "酢": 6671,
      "酣": 6672,
      "酥": 6673,
      "酪": 6674,
      "酬": 6675,
      "酮": 6676,
      "酯": 6677,
      "酰": 6678,
      "酱": 6679,
      "酵": 6680,
      "酶": 6681,
      "酷": 6682,
      "酸": 6683,
      "酹": 6684,
      "酿": 6685,
      "醇": 6686,
      "醉": 6687,
      "醋": 6688,
      "醌": 6689,
      "醍": 6690,
      "醐": 6691,
      "醒": 6692,
      "醚": 6693,
      "醛": 6694,
      "醣": 6695,
      "醪": 6696,
      "醫": 6697,
      "醮": 6698,
      "醯": 6699,
      "醴": 6700,
      "醺": 6701,
      "釆": 6702,
      "采": 6703,
      "釉": 6704,
      "释": 6705,
      "釋": 6706,
      "里": 6707,
      "重": 6708,
      "野": 6709,
      "量": 6710,
      "金": 6711,
      "釜": 6712,
      "針": 6713,
      "釩": 6714,
      "釺": 6715,
      "鈕": 6716,
      "鈣": 6717,
      "鈦": 6718,
      "鈴": 6719,
      "鉑": 6720,
      "鉛": 6721,
      "鉴": 6722,
      "鉻": 6723,
      "銀": 6724,
      "銅": 6725,
      "銖": 6726,
      "銘": 6727,
      "銮": 6728,
      "銳": 6729,
      "銷": 6730,
      "銻": 6731,
      "鋁": 6732,
      "鋅": 6733,
      "鋈": 6734,
      "鋪": 6735,
      "鋼": 6736,
      "錄": 6737,
      "錚": 6738,
      "錞": 6739,
      "錢": 6740,
      "錦": 6741,
      "錯": 6742,
      "錶": 6743,
      "錾": 6744,
      "鍋": 6745,
      "鍵": 6746,
      "鎏": 6747,
      "鎖": 6748,
      "鎬": 6749,
      "鎳": 6750,
      "鏈": 6751,
      "鏊": 6752,
      "鏖": 6753,
      "鏡": 6754,
      "鐘": 6755,
      "鐵": 6756,
      "鑄": 6757,
      "鑑": 6758,
      "鑒": 6759,
      "鑫": 6760,
      "鑿": 6761,
      "钇": 6762,
      "针": 6763,
      "钉": 6764,
      "钊": 6765,
      "钎": 6766,
      "钏": 6767,
      "钒": 6768,
      "钓": 6769,
      "钕": 6770,
      "钗": 6771,
      "钙": 6772,
      "钛": 6773,
      "钜": 6774,
      "钝": 6775,
      "钞": 6776,
      "钟": 6777,
      "钠": 6778,
      "钡": 6779,
      "钢": 6780,
      "钣": 6781,
      "钤": 6782,
      "钥": 6783,
      "钦": 6784,
      "钧": 6785,
      "钨": 6786,
      "钩": 6787,
      "钪": 6788,
      "钮": 6789,
      "钯": 6790,
      "钰": 6791,
      "钱": 6792,
      "钲": 6793,
      "钳": 6794,
      "钴": 6795,
      "钵": 6796,
      "钺": 6797,
      "钻": 6798,
      "钼": 6799,
      "钾": 6800,
      "钿": 6801,
      "铀": 6802,
      "铁": 6803,
      "铂": 6804,
      "铃": 6805,
      "铄": 6806,
      "铅": 6807,
      "铆": 6808,
      "铈": 6809,
      "铉": 6810,
      "铊": 6811,
      "铋": 6812,
      "铌": 6813,
      "铍": 6814,
      "铎": 6815,
      "铐": 6816,
      "铑": 6817,
      "铖": 6818,
      "铛": 6819,
      "铜": 6820,
      "铝": 6821,
      "铟": 6822,
      "铠": 6823,
      "铡": 6824,
      "铢": 6825,
      "铣": 6826,
      "铤": 6827,
      "铧": 6828,
      "铨": 6829,
      "铫": 6830,
      "铬": 6831,
      "铭": 6832,
      "铮": 6833,
      "铯": 6834,
      "铰": 6835,
      "铲": 6836,
      "铳": 6837,
      "铵": 6838,
      "银": 6839,
      "铷": 6840,
      "铸": 6841,
      "铺": 6842,
      "链": 6843,
      "铿": 6844,
      "销": 6845,
      "锁": 6846,
      "锂": 6847,
      "锄": 6848,
      "锅": 6849,
      "锆": 6850,
      "锈": 6851,
      "锉": 6852,
      "锋": 6853,
      "锌": 6854,
      "锏": 6855,
      "锐": 6856,
      "锑": 6857,
      "锒": 6858,
      "锔": 6859,
      "锕": 6860,
      "锗": 6861,
      "错": 6862,
      "锚": 6863,
      "锟": 6864,
      "锡": 6865,
      "锢": 6866,
      "锣": 6867,
      "锤": 6868,
      "锥": 6869,
      "锦": 6870,
      "锨": 6871,
      "锭": 6872,
      "键": 6873,
      "锯": 6874,
      "锰": 6875,
      "锱": 6876,
      "锲": 6877,
      "锴": 6878,
      "锵": 6879,
      "锹": 6880,
      "锺": 6881,
      "锻": 6882,
      "镀": 6883,
      "镁": 6884,
      "镂": 6885,
      "镇": 6886,
      "镉": 6887,
      "镊": 6888,
      "镌": 6889,
      "镍": 6890,
      "镐": 6891,
      "镑": 6892,
      "镒": 6893,
      "镓": 6894,
      "镕": 6895,
      "镖": 6896,
      "镗": 6897,
      "镛": 6898,
      "镜": 6899,
      "镝": 6900,
      "镣": 6901,
      "镦": 6902,
      "镧": 6903,
      "镬": 6904,
      "镭": 6905,
      "镯": 6906,
      "镰": 6907,
      "镲": 6908,
      "镳": 6909,
      "镶": 6910,
      "長": 6911,
      "长": 6912,
      "門": 6913,
      "閉": 6914,
      "開": 6915,
      "間": 6916,
      "閘": 6917,
      "関": 6918,
      "閣": 6919,
      "閱": 6920,
      "闍": 6921,
      "闗": 6922,
      "關": 6923,
      "闡": 6924,
      "闢": 6925,
      "门": 6926,
      "闪": 6927,
      "闫": 6928,
      "闭": 6929,
      "问": 6930,
      "闯": 6931,
      "闰": 6932,
      "闲": 6933,
      "闳": 6934,
      "间": 6935,
      "闵": 6936,
      "闷": 6937,
      "闸": 6938,
      "闹": 6939,
      "闺": 6940,
      "闻": 6941,
      "闽": 6942,
      "闾": 6943,
      "闿": 6944,
      "阀": 6945,
      "阁": 6946,
      "阂": 6947,
      "阅": 6948,
      "阆": 6949,
      "阇": 6950,
      "阈": 6951,
      "阉": 6952,
      "阎": 6953,
      "阐": 6954,
      "阑": 6955,
      "阔": 6956,
      "阕": 6957,
      "阖": 6958,
      "阗": 6959,
      "阙": 6960,
      "阚": 6961,
      "阜": 6962,
      "队": 6963,
      "阡": 6964,
      "阪": 6965,
      "阮": 6966,
      "阱": 6967,
      "防": 6968,
      "阳": 6969,
      "阴": 6970,
      "阵": 6971,
      "阶": 6972,
      "阻": 6973,
      "阿": 6974,
      "陀": 6975,
      "陂": 6976,
      "附": 6977,
      "际": 6978,
      "陆": 6979,
      "陇": 6980,
      "陈": 6981,
      "陋": 6982,
      "陌": 6983,
      "降": 6984,
      "限": 6985,
      "陕": 6986,
      "陛": 6987,
      "陞": 6988,
      "陟": 6989,
      "陡": 6990,
      "院": 6991,
      "除": 6992,
      "陨": 6993,
      "险": 6994,
      "陪": 6995,
      "陰": 6996,
      "陲": 6997,
      "陳": 6998,
      "陵": 6999,
      "陶": 7000,
      "陷": 7001,
      "陸": 7002,
      "陽": 7003,
      "隃": 7004,
      "隅": 7005,
      "隆": 7006,
      "隊": 7007,
      "隋": 7008,
      "隍": 7009,
      "階": 7010,
      "随": 7011,
      "隐": 7012,
      "隔": 7013,
      "隕": 7014,
      "隘": 7015,
      "隙": 7016,
      "際": 7017,
      "障": 7018,
      "隞": 7019,
      "隧": 7020,
      "隨": 7021,
      "險": 7022,
      "隱": 7023,
      "隳": 7024,
      "隶": 7025,
      "隸": 7026,
      "隻": 7027,
      "隼": 7028,
      "隽": 7029,
      "难": 7030,
      "雀": 7031,
      "雁": 7032,
      "雄": 7033,
      "雅": 7034,
      "集": 7035,
      "雇": 7036,
      "雉": 7037,
      "雌": 7038,
      "雍": 7039,
      "雎": 7040,
      "雏": 7041,
      "雒": 7042,
      "雕": 7043,
      "雖": 7044,
      "雙": 7045,
      "雜": 7046,
      "雞": 7047,
      "離": 7048,
      "難": 7049,
      "雨": 7050,
      "雩": 7051,
      "雪": 7052,
      "雯": 7053,
      "雲": 7054,
      "雳": 7055,
      "零": 7056,
      "雷": 7057,
      "雹": 7058,
      "電": 7059,
      "雾": 7060,
      "需": 7061,
      "霁": 7062,
      "霄": 7063,
      "霆": 7064,
      "震": 7065,
      "霈": 7066,
      "霉": 7067,
      "霍": 7068,
      "霎": 7069,
      "霏": 7070,
      "霓": 7071,
      "霖": 7072,
      "霜": 7073,
      "霞": 7074,
      "霧": 7075,
      "霭": 7076,
      "霰": 7077,
      "露": 7078,
      "霸": 7079,
      "霹": 7080,
      "霾": 7081,
      "靈": 7082,
      "青": 7083,
      "靓": 7084,
      "靖": 7085,
      "静": 7086,
      "靛": 7087,
      "靜": 7088,
      "非": 7089,
      "靠": 7090,
      "靡": 7091,
      "面": 7092,
      "靥": 7093,
      "革": 7094,
      "靳": 7095,
      "靴": 7096,
      "靶": 7097,
      "靺": 7098,
      "靼": 7099,
      "鞅": 7100,
      "鞋": 7101,
      "鞍": 7102,
      "鞑": 7103,
      "鞘": 7104,
      "鞟": 7105,
      "鞠": 7106,
      "鞣": 7107,
      "鞨": 7108,
      "鞭": 7109,
      "韌": 7110,
      "韓": 7111,
      "韦": 7112,
      "韧": 7113,
      "韩": 7114,
      "韪": 7115,
      "韫": 7116,
      "韬": 7117,
      "韭": 7118,
      "音": 7119,
      "韵": 7120,
      "韶": 7121,
      "韻": 7122,
      "響": 7123,
      "頁": 7124,
      "頂": 7125,
      "項": 7126,
      "順": 7127,
      "須": 7128,
      "預": 7129,
      "頒": 7130,
      "頗": 7131,
      "領": 7132,
      "頫": 7133,
      "頭": 7134,
      "頹": 7135,
      "頻": 7136,
      "顆": 7137,
      "題": 7138,
      "額": 7139,
      "顏": 7140,
      "顔": 7141,
      "願": 7142,
      "類": 7143,
      "顧": 7144,
      "顯": 7145,
      "页": 7146,
      "顶": 7147,
      "顷": 7148,
      "项": 7149,
      "顺": 7150,
      "须": 7151,
      "顼": 7152,
      "顽": 7153,
      "顾": 7154,
      "顿": 7155,
      "颀": 7156,
      "颁": 7157,
      "颂": 7158,
      "预": 7159,
      "颅": 7160,
      "领": 7161,
      "颇": 7162,
      "颈": 7163,
      "颉": 7164,
      "颊": 7165,
      "颋": 7166,
      "颌": 7167,
      "颍": 7168,
      "颏": 7169,
      "颐": 7170,
      "频": 7171,
      "颓": 7172,
      "颔": 7173,
      "颖": 7174,
      "颗": 7175,
      "题": 7176,
      "颚": 7177,
      "颛": 7178,
      "颜": 7179,
      "额": 7180,
      "颞": 7181,
      "颠": 7182,
      "颢": 7183,
      "颤": 7184,
      "颦": 7185,
      "颧": 7186,
      "風": 7187,
      "风": 7188,
      "飒": 7189,
      "飓": 7190,
      "飔": 7191,
      "飕": 7192,
      "飖": 7193,
      "飘": 7194,
      "飙": 7195,
      "飚": 7196,
      "飛": 7197,
      "飞": 7198,
      "食": 7199,
      "飨": 7200,
      "飯": 7201,
      "飲": 7202,
      "飼": 7203,
      "飽": 7204,
      "飾": 7205,
      "養": 7206,
      "餌": 7207,
      "餐": 7208,
      "餓": 7209,
      "餘": 7210,
      "館": 7211,
      "餮": 7212,
      "饋": 7213,
      "饕": 7214,
      "饥": 7215,
      "饧": 7216,
      "饨": 7217,
      "饪": 7218,
      "饬": 7219,
      "饭": 7220,
      "饮": 7221,
      "饯": 7222,
      "饰": 7223,
      "饱": 7224,
      "饲": 7225,
      "饴": 7226,
      "饵": 7227,
      "饶": 7228,
      "饷": 7229,
      "饺": 7230,
      "饼": 7231,
      "饿": 7232,
      "馀": 7233,
      "馁": 7234,
      "馄": 7235,
      "馅": 7236,
      "馆": 7237,
      "馈": 7238,
      "馊": 7239,
      "馋": 7240,
      "馍": 7241,
      "馏": 7242,
      "馒": 7243,
      "馕": 7244,
      "首": 7245,
      "馗": 7246,
      "香": 7247,
      "馥": 7248,
      "馨": 7249,
      "馬": 7250,
      "駐": 7251,
      "駕": 7252,
      "駛": 7253,
      "験": 7254,
      "騰": 7255,
      "驅": 7256,
      "驗": 7257,
      "驚": 7258,
      "驟": 7259,
      "马": 7260,
      "驭": 7261,
      "驮": 7262,
      "驯": 7263,
      "驰": 7264,
      "驱": 7265,
      "驳": 7266,
      "驴": 7267,
      "驶": 7268,
      "驷": 7269,
      "驸": 7270,
      "驹": 7271,
      "驺": 7272,
      "驻": 7273,
      "驼": 7274,
      "驾": 7275,
      "驿": 7276,
      "骁": 7277,
      "骂": 7278,
      "骄": 7279,
      "骅": 7280,
      "骆": 7281,
      "骇": 7282,
      "骈": 7283,
      "骉": 7284,
      "骊": 7285,
      "骋": 7286,
      "验": 7287,
      "骏": 7288,
      "骐": 7289,
      "骑": 7290,
      "骓": 7291,
      "骖": 7292,
      "骗": 7293,
      "骚": 7294,
      "骛": 7295,
      "骜": 7296,
      "骞": 7297,
      "骠": 7298,
      "骡": 7299,
      "骤": 7300,
      "骥": 7301,
      "骧": 7302,
      "骨": 7303,
      "骰": 7304,
      "骶": 7305,
      "骷": 7306,
      "骸": 7307,
      "骺": 7308,
      "骼": 7309,
      "髀": 7310,
      "髁": 7311,
      "髂": 7312,
      "髅": 7313,
      "髆": 7314,
      "髋": 7315,
      "髌": 7316,
      "髒": 7317,
      "髓": 7318,
      "體": 7319,
      "高": 7320,
      "髡": 7321,
      "髦": 7322,
      "髭": 7323,
      "髮": 7324,
      "髯": 7325,
      "髹": 7326,
      "髻": 7327,
      "鬆": 7328,
      "鬓": 7329,
      "鬟": 7330,
      "鬣": 7331,
      "鬱": 7332,
      "鬲": 7333,
      "鬻": 7334,
      "鬼": 7335,
      "魁": 7336,
      "魂": 7337,
      "魄": 7338,
      "魅": 7339,
      "魇": 7340,
      "魏": 7341,
      "魔": 7342,
      "魚": 7343,
      "魯": 7344,
      "鮈": 7345,
      "鮮": 7346,
      "鯤": 7347,
      "鱼": 7348,
      "鱿": 7349,
      "鲀": 7350,
      "鲁": 7351,
      "鲃": 7352,
      "鲅": 7353,
      "鲇": 7354,
      "鲈": 7355,
      "鲉": 7356,
      "鲊": 7357,
      "鲍": 7358,
      "鲑": 7359,
      "鲙": 7360,
      "鲚": 7361,
      "鲛": 7362,
      "鲜": 7363,
      "鲞": 7364,
      "鲟": 7365,
      "鲠": 7366,
      "鲡": 7367,
      "鲤": 7368,
      "鲧": 7369,
      "鲨": 7370,
      "鲩": 7371,
      "鲫": 7372,
      "鲭": 7373,
      "鲱": 7374,
      "鲲": 7375,
      "鲳": 7376,
      "鲴": 7377,
      "鲵": 7378,
      "鲷": 7379,
      "鲸": 7380,
      "鳃": 7381,
      "鳄": 7382,
      "鳅": 7383,
      "鳌": 7384,
      "鳍": 7385,
      "鳐": 7386,
      "鳔": 7387,
      "鳕": 7388,
      "鳖": 7389,
      "鳗": 7390,
      "鳝": 7391,
      "鳞": 7392,
      "鳟": 7393,
      "鳡": 7394,
      "鳥": 7395,
      "鳳": 7396,
      "鴉": 7397,
      "鴞": 7398,
      "鴻": 7399,
      "鶴": 7400,
      "鷹": 7401,
      "鸟": 7402,
      "鸠": 7403,
      "鸡": 7404,
      "鸢": 7405,
      "鸣": 7406,
      "鸥": 7407,
      "鸦": 7408,
      "鸩": 7409,
      "鸫": 7410,
      "鸬": 7411,
      "鸭": 7412,
      "鸮": 7413,
      "鸯": 7414,
      "鸱": 7415,
      "鸳": 7416,
      "鸵": 7417,
      "鸽": 7418,
      "鸾": 7419,
      "鸿": 7420,
      "鹂": 7421,
      "鹃": 7422,
      "鹄": 7423,
      "鹅": 7424,
      "鹈": 7425,
      "鹉": 7426,
      "鹊": 7427,
      "鹌": 7428,
      "鹏": 7429,
      "鹑": 7430,
      "鹘": 7431,
      "鹚": 7432,
      "鹜": 7433,
      "鹞": 7434,
      "鹤": 7435,
      "鹦": 7436,
      "鹩": 7437,
      "鹫": 7438,
      "鹬": 7439,
      "鹭": 7440,
      "鹮": 7441,
      "鹰": 7442,
      "鹳": 7443,
      "鹹": 7444,
      "鹼": 7445,
      "鹽": 7446,
      "鹿": 7447,
      "麂": 7448,
      "麇": 7449,
      "麋": 7450,
      "麒": 7451,
      "麓": 7452,
      "麗": 7453,
      "麝": 7454,
      "麟": 7455,
      "麥": 7456,
      "麦": 7457,
      "麵": 7458,
      "麸": 7459,
      "麻": 7460,
      "麼": 7461,
      "麽": 7462,
      "麾": 7463,
      "黃": 7464,
      "黄": 7465,
      "黍": 7466,
      "黎": 7467,
      "黏": 7468,
      "黑": 7469,
      "黒": 7470,
      "黔": 7471,
      "默": 7472,
      "黛": 7473,
      "黜": 7474,
      "黝": 7475,
      "點": 7476,
      "黠": 7477,
      "黢": 7478,
      "黥": 7479,
      "黧": 7480,
      "黨": 7481,
      "黩": 7482,
      "黯": 7483,
      "黹": 7484,
      "黻": 7485,
      "鼎": 7486,
      "鼐": 7487,
      "鼓": 7488,
      "鼠": 7489,
      "鼻": 7490,
      "鼾": 7491,
      "齁": 7492,
      "齊": 7493,
      "齋": 7494,
      "齐": 7495,
      "齒": 7496,
      "齡": 7497,
      "齦": 7498,
      "齿": 7499,
      "龄": 7500,
      "龅": 7501,
      "龈": 7502,
      "龊": 7503,
      "龋": 7504,
      "龌": 7505,
      "龍": 7506,
      "龐": 7507,
      "龙": 7508,
      "龚": 7509,
      "龛": 7510,
      "龟": 7511,
      "龢": 7512,
      "ꬱ": 7513,
      "가": 7514,
      "는": 7515,
      "다": 7516,
      "동": 7517,
      "때": 7518,
      "로": 7519,
      "를": 7520,
      "물": 7521,
      "봇": 7522,
      "수": 7523,
      "시": 7524,
      "십": 7525,
      "애": 7526,
      "얻": 7527,
      "오": 7528,
      "완": 7529,
      "울": 7530,
      "으": 7531,
      "을": 7532,
      "이": 7533,
      "있": 7534,
      "점": 7535,
      "지": 7536,
      "찾": 7537,
      "키": 7538,
      "통": 7539,
      "한": 7540,
      "해": 7541,
      "": 7542,
      "": 7543,
      "": 7544,
      "": 7545,
      "": 7546,
      "": 7547,
      "": 7548,
      "": 7549,
      "": 7550,
      "": 7551,
      "": 7552,
      "": 7553,
      "": 7554,
      "": 7555,
      "": 7556,
      "": 7557,
      "來": 7558,
      "論": 7559,
      "說": 7560,
      "勵": 7561,
      "力": 7562,
      "年": 7563,
      "連": 7564,
      "念": 7565,
      "僚": 7566,
      "理": 7567,
      "️": 7568,
      "︰": 7569,
      "︱": 7570,
      "﹐": 7571,
      "﹑": 7572,
      "﹒": 7573,
      "﹔": 7574,
      "﹕": 7575,
      "﹗": 7576,
      "﹝": 7577,
      "﹞": 7578,
      "﹡": 7579,
      "﹣": 7580,
      "﹦": 7581,
      "﻿": 7582,
      "！": 7583,
      "＂": 7584,
      "＃": 7585,
      "％": 7586,
      "＆": 7587,
      "（": 7588,
      "）": 7589,
      "＊": 7590,
      "＋": 7591,
      "，": 7592,
      "－": 7593,
      "．": 7594,
      "／": 7595,
      "０": 7596,
      "１": 7597,
      "２": 7598,
      "３": 7599,
      "４": 7600,
      "５": 7601,
      "６": 7602,
      "７": 7603,
      "８": 7604,
      "９": 7605,
      "：": 7606,
      "；": 7607,
      "＜": 7608,
      "＝": 7609,
      "＞": 7610,
      "？": 7611,
      "Ａ": 7612,
      "Ｂ": 7613,
      "Ｃ": 7614,
      "Ｄ": 7615,
      "Ｇ": 7616,
      "Ｈ": 7617,
      "Ｉ": 7618,
      "Ｊ": 7619,
      "Ｋ": 7620,
      "Ｌ": 7621,
      "Ｏ": 7622,
      "Ｐ": 7623,
      "Ｑ": 7624,
      "Ｓ": 7625,
      "Ｖ": 7626,
      "［": 7627,
      "］": 7628,
      "ａ": 7629,
      "ｌ": 7630,
      "ｍ": 7631,
      "ｑ": 7632,
      "ｓ": 7633,
      "ｔ": 7634,
      "ｖ": 7635,
      "｜": 7636,
      "～": 7637,
      "｢": 7638,
      "｣": 7639,
      "￣": 7640,
      "￥": 7641,
      "�": 7642,
      "𝜔": 7643,
      "🌍": 7644,
      "🌟": 7645,
      "🌿": 7646,
      "🍷": 7647,
      "🎗": 7648,
      "👆": 7649,
      "👇": 7650,
      "👈": 7651,
      "👉": 7652,
      "👍": 7653,
      "👣": 7654,
      "💋": 7655,
      "💫": 7656,
      "💬": 7657,
      "💮": 7658,
      "💯": 7659,
      "📢": 7660,
      "🔥": 7661,
      "🔮": 7662,
      "🔹": 7663,
      "🔺": 7664,
      "😡": 7665,
      "😢": 7666,
      "😭": 7667,
      "🙂": 7668,
      "🙋": 7669,
      "𥚃": 7670,
      "𨱔": 7671,
      "𪟝": 7672,
      "𫊸": 7673,
      "𫍽": 7674,
      "𫖮": 7675,
      "𫖯": 7676,
      "𫚉": 7677,
      "𫛚": 7678,
      "𬌗": 7679,
      "􀂙": 7680,
      "th": 7681,
      "in": 7682,
      "an": 7683,
      "the": 7684,
      "re": 7685,
      "on": 7686,
      "er": 7687,
      "ti": 7688,
      "en": 7689,
      "al": 7690,
      "ing": 7691,
      "or": 7692,
      "es": 7693,
      "and": 7694,
      "is": 7695,
      "at": 7696,
      "of": 7697,
      "ou": 7698,
      "to": 7699,
      "ed": 7700,
      "ar": 7701,
      "tion": 7702,
      "as": 7703,
      "le": 7704,
      "it": 7705,
      "ch": 7706,
      "st": 7707,
      "ent": 7708,
      "ro": 7709,
      "ic": 7710,
      "ly": 7711,
      "ve": 7712,
      "he": 7713,
      "ation": 7714,
      "se": 7715,
      "il": 7716,
      "om": 7717,
      "ac": 7718,
      "be": 7719,
      "for": 7720,
      "de": 7721,
      "ol": 7722,
      "ce": 7723,
      "su": 7724,
      "lo": 7725,
      "con": 7726,
      "are": 7727,
      "ad": 7728,
      "si": 7729,
      "ter": 7730,
      "te": 7731,
      "ment": 7732,
      "pro": 7733,
      "ir": 7734,
      "me": 7735,
      "no": 7736,
      "ver": 7737,
      "un": 7738,
      "The": 7739,
      "ig": 7740,
      "ge": 7741,
      "ul": 7742,
      "tr": 7743,
      "wi": 7744,
      "ab": 7745,
      "ur": 7746,
      "ec": 7747,
      "com": 7748,
      "per": 7749,
      "ts": 7750,
      "with": 7751,
      "mo": 7752,
      "ex": 7753,
      "wh": 7754,
      "id": 7755,
      "am": 7756,
      "sh": 7757,
      "we": 7758,
      "li": 7759,
      "ay": 7760,
      "that": 7761,
      "res": 7762,
      "ain": 7763,
      "our": 7764,
      "di": 7765,
      "ity": 7766,
      "ate": 7767,
      "us": 7768,
      "uc": 7769,
      "can": 7770,
      "ess": 7771,
      "po": 7772,
      "im": 7773,
      "ap": 7774,
      "qu": 7775,
      "so": 7776,
      "od": 7777,
      "fe": 7778,
      "ld": 7779,
      "ple": 7780,
      "oun": 7781,
      "pl": 7782,
      "tic": 7783,
      "igh": 7784,
      "ne": 7785,
      "not": 7786,
      "ach": 7787,
      "ha": 7788,
      "ut": 7789,
      "ther": 7790,
      "ang": 7791,
      "pe": 7792,
      "ill": 7793,
      "ke": 7794,
      "pr": 7795,
      "ren": 7796,
      "all": 7797,
      "ong": 7798,
      "ci": 7799,
      "fic": 7800,
      "gr": 7801,
      "In": 7802,
      "ers": 7803,
      "str": 7804,
      "one": 7805,
      "rom": 7806,
      "age": 7807,
      "ud": 7808,
      "em": 7809,
      "his": 7810,
      "ty": 7811,
      "um": 7812,
      "sp": 7813,
      "out": 7814,
      "ure": 7815,
      "wor": 7816,
      "by": 7817,
      "their": 7818,
      "ow": 7819,
      "from": 7820,
      "20": 7821,
      "ting": 7822,
      "der": 7823,
      "ll": 7824,
      "Ch": 7825,
      "ant": 7826,
      "ag": 7827,
      "tive": 7828,
      "you": 7829,
      "have": 7830,
      "ten": 7831,
      "ould": 7832,
      "dis": 7833,
      "form": 7834,
      "ous": 7835,
      "ance": 7836,
      "has": 7837,
      "co": 7838,
      "low": 7839,
      "gh": 7840,
      "ma": 7841,
      "cl": 7842,
      "ild": 7843,
      "par": 7844,
      "ri": 7845,
      "this": 7846,
      "ally": 7847,
      "ear": 7848,
      "red": 7849,
      "vi": 7850,
      "ents": 7851,
      "est": 7852,
      "ine": 7853,
      "whi": 7854,
      "fo": 7855,
      "ind": 7856,
      "iz": 7857,
      "pre": 7858,
      "was": 7859,
      "king": 7860,
      "will": 7861,
      "ary": 7862,
      "por": 7863,
      "do": 7864,
      "man": 7865,
      "also": 7866,
      "ical": 7867,
      "cho": 7868,
      "ard": 7869,
      "ough": 7870,
      "ted": 7871,
      "au": 7872,
      "ated": 7873,
      "go": 7874,
      "tions": 7875,
      "sion": 7876,
      "ater": 7877,
      "bo": 7878,
      "ial": 7879,
      "duc": 7880,
      "ass": 7881,
      "00": 7882,
      "cont": 7883,
      "ven": 7884,
      "af": 7885,
      "they": 7886,
      "able": 7887,
      "child": 7888,
      "stud": 7889,
      "sa": 7890,
      "ties": 7891,
      "which": 7892,
      "我们": 7893,
      "should": 7894,
      "可以": 7895,
      "end": 7896,
      "ust": 7897,
      "ip": 7898,
      "ome": 7899,
      "ight": 7900,
      "ct": 7901,
      "ef": 7902,
      "but": 7903,
      "ish": 7904,
      "other": 7905,
      "very": 7906,
      "ence": 7907,
      "ans": 7908,
      "time": 7909,
      "act": 7910,
      "ies": 7911,
      "一个": 7912,
      "cre": 7913,
      "ue": 7914,
      "cor": 7915,
      "ound": 7916,
      "hen": 7917,
      "up": 7918,
      "Chin": 7919,
      "sy": 7920,
      "ie": 7921,
      "pres": 7922,
      "ople": 7923,
      "more": 7924,
      "work": 7925,
      "its": 7926,
      "ning": 7927,
      "chool": 7928,
      "ta": 7929,
      "ves": 7930,
      "op": 7931,
      "孩子": 7932,
      "ni": 7933,
      "ase": 7934,
      "og": 7935,
      "your": 7936,
      "This": 7937,
      "ations": 7938,
      "high": 7939,
      "them": 7940,
      "fec": 7941,
      "ree": 7942,
      "ving": 7943,
      "ful": 7944,
      "velo": 7945,
      "if": 7946,
      "ep": 7947,
      "velop": 7948,
      "now": 7949,
      "lear": 7950,
      "el": 7951,
      "br": 7952,
      "et": 7953,
      "there": 7954,
      "people": 7955,
      "自己": 7956,
      "ating": 7957,
      "ser": 7958,
      "who": 7959,
      "year": 7960,
      "ces": 7961,
      "ational": 7962,
      "col": 7963,
      "comm": 7964,
      "bl": 7965,
      "stand": 7966,
      "teach": 7967,
      "port": 7968,
      "ace": 7969,
      "under": 7970,
      "develop": 7971,
      "peri": 7972,
      "aw": 7973,
      "comp": 7974,
      "ble": 7975,
      "own": 7976,
      "ments": 7977,
      "fore": 7978,
      "ion": 7979,
      "olog": 7980,
      "cess": 7981,
      "sti": 7982,
      "inter": 7983,
      "ber": 7984,
      "coun": 7985,
      "students": 7986,
      "spec": 7987,
      "eng": 7988,
      "ener": 7989,
      "ks": 7990,
      "val": 7991,
      "reg": 7992,
      "cur": 7993,
      "ist": 7994,
      "cul": 7995,
      "min": 7996,
      "ction": 7997,
      "ory": 7998,
      "over": 7999,
      "tain": 8000,
      "rough": 8001,
      "tur": 8002,
      "19": 8003,
      "学生": 8004,
      "school": 8005,
      "dif": 8006,
      "It": 8007,
      "ph": 8008,
      "ese": 8009,
      "any": 8010,
      "such": 8011,
      "pa": 8012,
      "children": 8013,
      "main": 8014,
      "ual": 8015,
      "ors": 8016,
      "进行": 8017,
      "工作": 8018,
      "ily": 8019,
      "vid": 8020,
      "uring": 8021,
      "sel": 8022,
      "ice": 8023,
      "stem": 8024,
      "irst": 8025,
      "med": 8026,
      "ast": 8027,
      "ia": 8028,
      "ite": 8029,
      "rel": 8030,
      "into": 8031,
      "ack": 8032,
      "when": 8033,
      "ob": 8034,
      "enti": 8035,
      "jec": 8036,
      "pers": 8037,
      "int": 8038,
      "only": 8039,
      "bet": 8040,
      "know": 8041,
      "ates": 8042,
      "requ": 8043,
      "rent": 8044,
      "day": 8045,
      "10": 8046,
      "new": 8047,
      "mar": 8048,
      "wo": 8049,
      "des": 8050,
      "old": 8051,
      "some": 8052,
      "教育": 8053,
      "about": 8054,
      "exam": 8055,
      "through": 8056,
      "way": 8057,
      "read": 8058,
      "system": 8059,
      "need": 8060,
      "If": 8061,
      "educ": 8062,
      "struc": 8063,
      "ved": 8064,
      "发展": 8065,
      "produc": 8066,
      "reat": 8067,
      "ious": 8068,
      "ative": 8069,
      "vel": 8070,
      "dr": 8071,
      "my": 8072,
      "row": 8073,
      "ility": 8074,
      "ire": 8075,
      "long": 8076,
      "water": 8077,
      "cer": 8078,
      "ms": 8079,
      "tu": 8080,
      "学习": 8081,
      "acti": 8082,
      "ho": 8083,
      "thing": 8084,
      "life": 8085,
      "here": 8086,
      "use": 8087,
      "development": 8088,
      "sig": 8089,
      "her": 8090,
      "bas": 8091,
      "问题": 8092,
      "pos": 8093,
      "ture": 8094,
      "vis": 8095,
      "fr": 8096,
      "enc": 8097,
      "after": 8098,
      "ok": 8099,
      "pec": 8100,
      "cial": 8101,
      "each": 8102,
      "mon": 8103,
      "person": 8104,
      "art": 8105,
      "aren": 8106,
      "sur": 8107,
      "没有": 8108,
      "come": 8109,
      "中国": 8110,
      "been": 8111,
      "cal": 8112,
      "cus": 8113,
      "ew": 8114,
      "China": 8115,
      "vers": 8116,
      "ign": 8117,
      "ys": 8118,
      "first": 8119,
      "av": 8120,
      "就是": 8121,
      "时间": 8122,
      "alth": 8123,
      "like": 8124,
      "led": 8125,
      "car": 8126,
      "ise": 8127,
      "cr": 8128,
      "Th": 8129,
      "研究": 8130,
      "需要": 8131,
      "如果": 8132,
      "sub": 8133,
      "lec": 8134,
      "try": 8135,
      "St": 8136,
      "then": 8137,
      "arch": 8138,
      "fl": 8139,
      "every": 8140,
      "process": 8141,
      "mp": 8142,
      "ding": 8143,
      "Chinese": 8144,
      "ca": 8145,
      "bu": 8146,
      "ive": 8147,
      "ref": 8148,
      "two": 8149,
      "He": 8150,
      "thod": 8151,
      "chn": 8152,
      "var": 8153,
      "good": 8154,
      "inte": 8155,
      "ause": 8156,
      "Li": 8157,
      "通过": 8158,
      "ubl": 8159,
      "ide": 8160,
      "enter": 8161,
      "used": 8162,
      "tal": 8163,
      "lead": 8164,
      "An": 8165,
      "char": 8166,
      "fol": 8167,
      "Com": 8168,
      "When": 8169,
      "most": 8170,
      "ality": 8171,
      "app": 8172,
      "ness": 8173,
      "vol": 8174,
      "tim": 8175,
      "formation": 8176,
      "many": 8177,
      "part": 8178,
      "gu": 8179,
      "pon": 8180,
      "fun": 8181,
      "than": 8182,
      "class": 8183,
      "sol": 8184,
      "ds": 8185,
      "sul": 8186,
      "effec": 8187,
      "experi": 8188,
      "使用": 8189,
      "ities": 8190,
      "ustr": 8191,
      "vir": 8192,
      "sive": 8193,
      "well": 8194,
      "method": 8195,
      "les": 8196,
      "En": 8197,
      "self": 8198,
      "mis": 8199,
      "must": 8200,
      "sing": 8201,
      "were": 8202,
      "nec": 8203,
      "lish": 8204,
      "gan": 8205,
      "生活": 8206,
      "incl": 8207,
      "tical": 8208,
      "rect": 8209,
      "ship": 8210,
      "他们": 8211,
      "For": 8212,
      "uan": 8213,
      "hel": 8214,
      "ian": 8215,
      "sure": 8216,
      "Af": 8217,
      "201": 8218,
      "Pro": 8219,
      "Zh": 8220,
      "ak": 8221,
      "wer": 8222,
      "years": 8223,
      "understand": 8224,
      "hand": 8225,
      "ose": 8226,
      "diffe": 8227,
      "There": 8228,
      "education": 8229,
      "follow": 8230,
      "ature": 8231,
      "tri": 8232,
      "level": 8233,
      "even": 8234,
      "eas": 8235,
      "chan": 8236,
      "We": 8237,
      "可能": 8238,
      "trans": 8239,
      "的人": 8240,
      "ters": 8241,
      "sup": 8242,
      "oc": 8243,
      "during": 8244,
      "incre": 8245,
      "oper": 8246,
      "Re": 8247,
      "ade": 8248,
      "ween": 8249,
      "ology": 8250,
      "comple": 8251,
      "vent": 8252,
      "管理": 8253,
      "between": 8254,
      "社会": 8255,
      "ular": 8256,
      "fin": 8257,
      "cent": 8258,
      "After": 8259,
      "gener": 8260,
      "mil": 8261,
      "cour": 8262,
      "什么": 8263,
      "may": 8264,
      "活动": 8265,
      "ication": 8266,
      "mit": 8267,
      "less": 8268,
      "just": 8269,
      "paren": 8270,
      "技术": 8271,
      "cause": 8272,
      "help": 8273,
      "these": 8274,
      "fam": 8275,
      "hy": 8276,
      "side": 8277,
      "grad": 8278,
      "tern": 8279,
      "ability": 8280,
      "import": 8281,
      "tional": 8282,
      "arm": 8283,
      "As": 8284,
      "num": 8285,
      "ized": 8286,
      "这个": 8287,
      "fa": 8288,
      "publ": 8289,
      "学校": 8290,
      "pol": 8291,
      "blo": 8292,
      "fact": 8293,
      "Sh": 8294,
      "achie": 8295,
      "plan": 8296,
      "being": 8297,
      "get": 8298,
      "ination": 8299,
      "cap": 8300,
      "ince": 8301,
      "ques": 8302,
      "On": 8303,
      "agement": 8304,
      "techn": 8305,
      "what": 8306,
      "prof": 8307,
      "versity": 8308,
      "set": 8309,
      "three": 8310,
      "partic": 8311,
      "能力": 8312,
      "ens": 8313,
      "mem": 8314,
      "respon": 8315,
      "nific": 8316,
      "ody": 8317,
      "Con": 8318,
      "ward": 8319,
      "learning": 8320,
      "tem": 8321,
      "lar": 8322,
      "ao": 8323,
      "ick": 8324,
      "how": 8325,
      "mer": 8326,
      "sk": 8327,
      "影响": 8328,
      "uni": 8329,
      "中的": 8330,
      "fer": 8331,
      "安全": 8332,
      "重要": 8333,
      "因为": 8334,
      "take": 8335,
      "Ho": 8336,
      "body": 8337,
      "appro": 8338,
      "signific": 8339,
      "hou": 8340,
      "tiv": 8341,
      "serv": 8342,
      "had": 8343,
      "ures": 8344,
      "jo": 8345,
      "emp": 8346,
      "health": 8347,
      "line": 8348,
      "cep": 8349,
      "ra": 8350,
      "acter": 8351,
      "tics": 8352,
      "search": 8353,
      "impro": 8354,
      "posi": 8355,
      "where": 8356,
      "主要": 8357,
      "wr": 8358,
      "care": 8359,
      "Be": 8360,
      "hum": 8361,
      "ific": 8362,
      "cond": 8363,
      "aining": 8364,
      "sm": 8365,
      "ings": 8366,
      "tle": 8367,
      "aterial": 8368,
      "using": 8369,
      "make": 8370,
      "ress": 8371,
      "情况": 8372,
      "ital": 8373,
      "De": 8374,
      "industr": 8375,
      "view": 8376,
      "自己的": 8377,
      "uation": 8378,
      "30": 8379,
      "various": 8380,
      "企业": 8381,
      "divid": 8382,
      "ame": 8383,
      "ject": 8384,
      "issu": 8385,
      "grow": 8386,
      "parents": 8387,
      "oup": 8388,
      "viron": 8389,
      "不同": 8390,
      "equ": 8391,
      "mul": 8392,
      "方法": 8393,
      "系统": 8394,
      "国家": 8395,
      "ss": 8396,
      "still": 8397,
      "istr": 8398,
      "ization": 8399,
      "anc": 8400,
      "clo": 8401,
      "rest": 8402,
      "不是": 8403,
      "said": 8404,
      "专业": 8405,
      "while": 8406,
      "gy": 8407,
      "iang": 8408,
      "cle": 8409,
      "organ": 8410,
      "atten": 8411,
      "both": 8412,
      "dition": 8413,
      "resul": 8414,
      "Ex": 8415,
      "material": 8416,
      "back": 8417,
      "see": 8418,
      "12": 8419,
      "大学": 8420,
      "top": 8421,
      "mal": 8422,
      "teaching": 8423,
      "world": 8424,
      "bre": 8425,
      "这些": 8426,
      "tural": 8427,
      "iness": 8428,
      "sit": 8429,
      "contro": 8430,
      "所以": 8431,
      "play": 8432,
      "contin": 8433,
      "一种": 8434,
      "important": 8435,
      "Uni": 8436,
      "leg": 8437,
      "land": 8438,
      "thin": 8439,
      "fi": 8440,
      "人的": 8441,
      "sci": 8442,
      "del": 8443,
      "significant": 8444,
      "ency": 8445,
      "环境": 8446,
      "ages": 8447,
      "方式": 8448,
      "教学": 8449,
      "prote": 8450,
      "would": 8451,
      "research": 8452,
      "feel": 8453,
      "vironment": 8454,
      "ying": 8455,
      "cri": 8456,
      "信息": 8457,
      "ort": 8458,
      "ner": 8459,
      "includ": 8460,
      "Ar": 8461,
      "she": 8462,
      "ledge": 8463,
      "15": 8464,
      "文化": 8465,
      "information": 8466,
      "时候": 8467,
      "different": 8468,
      "过程": 8469,
      "cording": 8470,
      "conom": 8471,
      "ually": 8472,
      "fici": 8473,
      "mic": 8474,
      "ict": 8475,
      "好的": 8476,
      "很多": 8477,
      "ize": 8478,
      "ned": 8479,
      "经济": 8480,
      "要求": 8481,
      "wever": 8482,
      "ways": 8483,
      "based": 8484,
      "ural": 8485,
      "struction": 8486,
      "出现": 8487,
      "adv": 8488,
      "数据": 8489,
      "这样": 8490,
      "often": 8491,
      "sen": 8492,
      "老师": 8493,
      "服务": 8494,
      "一些": 8495,
      "gram": 8496,
      "period": 8497,
      "方面": 8498,
      "let": 8499,
      "知识": 8500,
      "sum": 8501,
      "ological": 8502,
      "als": 8503,
      "tis": 8504,
      "small": 8505,
      "ately": 8506,
      "food": 8507,
      "ai": 8508,
      "一定": 8509,
      "does": 8510,
      "national": 8511,
      "pur": 8512,
      "safe": 8513,
      "plement": 8514,
      "ot": 8515,
      "ession": 8516,
      "ata": 8517,
      "found": 8518,
      "making": 8519,
      "At": 8520,
      "promo": 8521,
      "提供": 8522,
      "nor": 8523,
      "Gu": 8524,
      "ason": 8525,
      "202": 8526,
      "vide": 8527,
      "appl": 8528,
      "fac": 8529,
      "adi": 8530,
      "present": 8531,
      "management": 8532,
      "within": 8533,
      "knowledge": 8534,
      "ablish": 8535,
      "ket": 8536,
      "开始": 8537,
      "same": 8538,
      "allow": 8539,
      "However": 8540,
      "gre": 8541,
      "public": 8542,
      "不能": 8543,
      "选择": 8544,
      "tively": 8545,
      "iting": 8546,
      "ug": 8547,
      "environment": 8548,
      "University": 8549,
      "ently": 8550,
      "quality": 8551,
      "ficul": 8552,
      "ield": 8553,
      "000": 8554,
      "根据": 8555,
      "健康": 8556,
      "reng": 8557,
      "fully": 8558,
      "exp": 8559,
      "become": 8560,
      "发生": 8561,
      "对于": 8562,
      "ism": 8563,
      "ze": 8564,
      "difficul": 8565,
      "ran": 8566,
      "him": 8567,
      "To": 8568,
      "hist": 8569,
      "character": 8570,
      "stitu": 8571,
      "number": 8572,
      "世界": 8573,
      "oid": 8574,
      "chang": 8575,
      "Wh": 8576,
      "inal": 8577,
      "ines": 8578,
      "down": 8579,
      "content": 8580,
      "treat": 8581,
      "poin": 8582,
      "200": 8583,
      "others": 8584,
      "内容": 8585,
      "large": 8586,
      "commun": 8587,
      "point": 8588,
      "without": 8589,
      "thor": 8590,
      "ution": 8591,
      "发现": 8592,
      "lect": 8593,
      "部分": 8594,
      "those": 8595,
      "call": 8596,
      "pati": 8597,
      "bi": 8598,
      "mat": 8599,
      "同时": 8600,
      "light": 8601,
      "design": 8602,
      "men": 8603,
      "before": 8604,
      "home": 8605,
      "科学": 8606,
      "social": 8607,
      "power": 8608,
      "作用": 8609,
      "pri": 8610,
      "state": 8611,
      "say": 8612,
      "lit": 8613,
      "add": 8614,
      "以及": 8615,
      "So": 8616,
      "put": 8617,
      "ry": 8618,
      "bus": 8619,
      "大家": 8620,
      "的是": 8621,
      "提高": 8622,
      "establish": 8623,
      "ene": 8624,
      "sible": 8625,
      "ove": 8626,
      "cell": 8627,
      "provid": 8628,
      "spe": 8629,
      "times": 8630,
      "face": 8631,
      "相关": 8632,
      "though": 8633,
      "cannot": 8634,
      "blood": 8635,
      "第一": 8636,
      "其他": 8637,
      "teachers": 8638,
      "11": 8639,
      "group": 8640,
      "data": 8641,
      "tex": 8642,
      "econom": 8643,
      "ices": 8644,
      "设计": 8645,
      "order": 8646,
      "air": 8647,
      "soci": 8648,
      "enh": 8649,
      "ext": 8650,
      "proble": 8651,
      "training": 8652,
      "attention": 8653,
      "second": 8654,
      "place": 8655,
      "loy": 8656,
      "control": 8657,
      "作为": 8658,
      "组织": 8659,
      "perform": 8660,
      "Pr": 8661,
      "School": 8662,
      "Un": 8663,
      "great": 8664,
      "net": 8665,
      "mission": 8666,
      "achieve": 8667,
      "real": 8668,
      "too": 8669,
      "也是": 8670,
      "ticle": 8671,
      "注意": 8672,
      "require": 8673,
      "pay": 8674,
      "ased": 8675,
      "loc": 8676,
      "或者": 8677,
      "ases": 8678,
      "vities": 8679,
      "人员": 8680,
      "dep": 8681,
      "rence": 8682,
      "具有": 8683,
      "streng": 8684,
      "分析": 8685,
      "clear": 8686,
      "教师": 8687,
      "ited": 8688,
      "不要": 8689,
      "但是": 8690,
      "pain": 8691,
      "country": 8692,
      "ord": 8693,
      "50": 8694,
      "家长": 8695,
      "family": 8696,
      "da": 8697,
      "human": 8698,
      "产品": 8699,
      "prin": 8700,
      "Hu": 8701,
      "gi": 8702,
      "ris": 8703,
      "change": 8704,
      "dividual": 8705,
      "rele": 8706,
      "Par": 8707,
      "ared": 8708,
      "已经": 8709,
      "Ad": 8710,
      "大的": 8711,
      "aster": 8712,
      "运动": 8713,
      "ste": 8714,
      "能够": 8715,
      "为了": 8716,
      "construction": 8717,
      "made": 8718,
      "open": 8719,
      "ics": 8720,
      "Ac": 8721,
      "lie": 8722,
      "vision": 8723,
      "methods": 8724,
      "room": 8725,
      "uce": 8726,
      "yn": 8727,
      "direct": 8728,
      "Eng": 8729,
      "focus": 8730,
      "dom": 8731,
      "gover": 8732,
      "基础": 8733,
      "heart": 8734,
      "activities": 8735,
      "maj": 8736,
      "necess": 8737,
      "18": 8738,
      "sis": 8739,
      "如何": 8740,
      "road": 8741,
      "improve": 8742,
      "right": 8743,
      "lectr": 8744,
      "meas": 8745,
      "typ": 8746,
      "公司": 8747,
      "ficial": 8748,
      "pass": 8749,
      "一般": 8750,
      "ilities": 8751,
      "Therefore": 8752,
      "hold": 8753,
      "hu": 8754,
      "都是": 8755,
      "uch": 8756,
      "关系": 8757,
      "lege": 8758,
      "because": 8759,
      "show": 8760,
      "following": 8761,
      "anal": 8762,
      "current": 8763,
      "You": 8764,
      "They": 8765,
      "term": 8766,
      "points": 8767,
      "上的": 8768,
      "individual": 8769,
      "acc": 8770,
      "这种": 8771,
      "mun": 8772,
      "turn": 8773,
      "sto": 8774,
      "sid": 8775,
      "项目": 8776,
      "非常": 8777,
      "experience": 8778,
      "100": 8779,
      "flow": 8780,
      "field": 8781,
      "ones": 8782,
      "boo": 8783,
      "particip": 8784,
      "avoid": 8785,
      "find": 8786,
      "身体": 8787,
      "生产": 8788,
      "related": 8789,
      "了解": 8790,
      "tial": 8791,
      "govern": 8792,
      "uture": 8793,
      "peti": 8794,
      "建设": 8795,
      "必须": 8796,
      "包括": 8797,
      "conduc": 8798,
      "implement": 8799,
      "reason": 8800,
      "reading": 8801,
      "specific": 8802,
      "strong": 8803,
      "teacher": 8804,
      "到了": 8805,
      "safety": 8806,
      "ath": 8807,
      "profession": 8808,
      "don": 8809,
      "energy": 8810,
      "ants": 8811,
      "prevent": 8812,
      "hi": 8813,
      "帮助": 8814,
      "always": 8815,
      "amp": 8816,
      "bal": 8817,
      "ore": 8818,
      "因此": 8819,
      "key": 8820,
      "dri": 8821,
      "press": 8822,
      "Pe": 8823,
      "ban": 8824,
      "suc": 8825,
      "could": 8826,
      "课程": 8827,
      "materials": 8828,
      "future": 8829,
      "action": 8830,
      "Educ": 8831,
      "inv": 8832,
      "成为": 8833,
      "所有": 8834,
      "abor": 8835,
      "move": 8836,
      "ards": 8837,
      "text": 8838,
      "ey": 8839,
      "ises": 8840,
      "oung": 8841,
      "处理": 8842,
      "law": 8843,
      "Res": 8844,
      "tas": 8845,
      "的一": 8846,
      "angu": 8847,
      "continu": 8848,
      "现在": 8849,
      "area": 8850,
      "whe": 8851,
      "还是": 8852,
      "due": 8853,
      "production": 8854,
      "kes": 8855,
      "cu": 8856,
      "team": 8857,
      "head": 8858,
      "requi": 8859,
      "technology": 8860,
      "condi": 8861,
      "certain": 8862,
      "xi": 8863,
      "应该": 8864,
      "ling": 8865,
      "Te": 8866,
      "yuan": 8867,
      "omen": 8868,
      "study": 8869,
      "Se": 8870,
      "容易": 8871,
      "star": 8872,
      "build": 8873,
      "position": 8874,
      "gar": 8875,
      "实现": 8876,
      "导致": 8877,
      "ins": 8878,
      "sco": 8879,
      "存在": 8880,
      "No": 8881,
      "功能": 8882,
      "phys": 8883,
      "增加": 8884,
      "temper": 8885,
      "的时候": 8886,
      "mor": 8887,
      "orig": 8888,
      "industry": 8889,
      "growth": 8890,
      "ously": 8891,
      "learn": 8892,
      "treatment": 8893,
      "course": 8894,
      "skill": 8895,
      "gen": 8896,
      "fort": 8897,
      "things": 8898,
      "major": 8899,
      "prim": 8900,
      "控制": 8901,
      "electr": 8902,
      "idd": 8903,
      "患者": 8904,
      "among": 8905,
      "conditions": 8906,
      "interest": 8907,
      "conf": 8908,
      "hard": 8909,
      "ave": 8910,
      "asing": 8911,
      "actice": 8912,
      "again": 8913,
      "special": 8914,
      "认为": 8915,
      "affec": 8916,
      "correct": 8917,
      "sc": 8918,
      "sal": 8919,
      "atch": 8920,
      "Al": 8921,
      "ked": 8922,
      "nov": 8923,
      "needs": 8924,
      "provide": 8925,
      "areas": 8926,
      "cir": 8927,
      "tra": 8928,
      "enterpr": 8929,
      "13": 8930,
      "ences": 8931,
      "During": 8932,
      "知道": 8933,
      "off": 8934,
      "mind": 8935,
      "保护": 8936,
      "mental": 8937,
      "maintain": 8938,
      "产生": 8939,
      "基本": 8940,
      "这是": 8941,
      "prehen": 8942,
      "examination": 8943,
      "spir": 8944,
      "cultiv": 8945,
      "market": 8946,
      "市场": 8947,
      "around": 8948,
      "自然": 8949,
      "icul": 8950,
      "including": 8951,
      "gether": 8952,
      "function": 8953,
      "ush": 8954,
      "来的": 8955,
      "medi": 8956,
      "value": 8957,
      "Education": 8958,
      "deep": 8959,
      "ources": 8960,
      "个人": 8961,
      "历史": 8962,
      "ering": 8963,
      "young": 8964,
      "标准": 8965,
      "multi": 8966,
      "比较": 8967,
      "city": 8968,
      "partment": 8969,
      "complete": 8970,
      "book": 8971,
      "amoun": 8972,
      "known": 8973,
      "example": 8974,
      "princi": 8975,
      "解决": 8976,
      "ied": 8977,
      "那么": 8978,
      "中心": 8979,
      "ances": 8980,
      "proper": 8981,
      "better": 8982,
      "employ": 8983,
      "16": 8984,
      "etc": 8985,
      "four": 8986,
      "fri": 8987,
      "tee": 8988,
      "What": 8989,
      "dies": 8990,
      "jects": 8991,
      "cept": 8992,
      "nal": 8993,
      "fill": 8994,
      "nat": 8995,
      "region": 8996,
      "understanding": 8997,
      "治疗": 8998,
      "Cl": 8999,
      "anguage": 9000,
      "bility": 9001,
      "fur": 9002,
      "situation": 9003,
      "tes": 9004,
      "14": 9005,
      "ded": 9006,
      "Tr": 9007,
      "bers": 9008,
      "much": 9009,
      "together": 9010,
      "aditional": 9011,
      "necessary": 9012,
      "mother": 9013,
      "ses": 9014,
      "有效": 9015,
      "prac": 9016,
      "prehensive": 9017,
      "everyone": 9018,
      "model": 9019,
      "之间": 9020,
      "以上": 9021,
      "step": 9022,
      "tran": 9023,
      "appe": 9024,
      "rece": 9025,
      "pul": 9026,
      "istics": 9027,
      "ele": 9028,
      "comb": 9029,
      "grap": 9030,
      "author": 9031,
      "belie": 9032,
      "above": 9033,
      "regul": 9034,
      "质量": 9035,
      "comes": 9036,
      "words": 9037,
      "company": 9038,
      "这一": 9039,
      "ft": 9040,
      "vince": 9041,
      "bab": 9042,
      "ends": 9043,
      "did": 9044,
      "la": 9045,
      "iao": 9046,
      "ird": 9047,
      "Gr": 9048,
      "行为": 9049,
      "integr": 9050,
      "vil": 9051,
      "flu": 9052,
      "business": 9053,
      "应用": 9054,
      "labor": 9055,
      "一起": 9056,
      "products": 9057,
      "gg": 9058,
      "relation": 9059,
      "want": 9060,
      "exer": 9061,
      "illage": 9062,
      "ith": 9063,
      "由于": 9064,
      "connec": 9065,
      "ynas": 9066,
      "完成": 9067,
      "ories": 9068,
      "New": 9069,
      "und": 9070,
      "higher": 9071,
      "利用": 9072,
      "happ": 9073,
      "practice": 9074,
      "resid": 9075,
      "indic": 9076,
      "ensure": 9077,
      "issues": 9078,
      "人民": 9079,
      "资源": 9080,
      "operation": 9081,
      "ck": 9082,
      "ons": 9083,
      "考试": 9084,
      "imp": 9085,
      "anti": 9086,
      "规定": 9087,
      "National": 9088,
      "reco": 9089,
      "centr": 9090,
      "common": 9091,
      "basic": 9092,
      "professional": 9093,
      "cise": 9094,
      "材料": 9095,
      "cy": 9096,
      "ping": 9097,
      "til": 9098,
      "equip": 9099,
      "plac": 9100,
      "reach": 9101,
      "early": 9102,
      "English": 9103,
      "精神": 9104,
      "ateg": 9105,
      "increase": 9106,
      "house": 9107,
      "第二": 9108,
      "同学": 9109,
      "ready": 9110,
      "学院": 9111,
      "entific": 9112,
      "fil": 9113,
      "结构": 9114,
      "ysis": 9115,
      "hic": 9116,
      "consu": 9117,
      "jing": 9118,
      "父母": 9119,
      "selves": 9120,
      "success": 9121,
      "形成": 9122,
      "不断": 9123,
      "suf": 9124,
      "25": 9125,
      "application": 9126,
      "ude": 9127,
      "培养": 9128,
      "pressure": 9129,
      "question": 9130,
      "变化": 9131,
      "保持": 9132,
      "invol": 9133,
      "ix": 9134,
      "month": 9135,
      "aring": 9136,
      "path": 9137,
      "support": 9138,
      "ease": 9139,
      "shall": 9140,
      "创新": 9141,
      "ross": 9142,
      "tail": 9143,
      "工程": 9144,
      "physical": 9145,
      "program": 9146,
      "nel": 9147,
      "40": 9148,
      "ground": 9149,
      "possible": 9150,
      "结果": 9151,
      "获得": 9152,
      "comprehensive": 9153,
      "student": 9154,
      "medical": 9155,
      "whether": 9156,
      "不会": 9157,
      "toms": 9158,
      "mean": 9159,
      "更多": 9160,
      "aging": 9161,
      "dist": 9162,
      "不仅": 9163,
      "条件": 9164,
      "政府": 9165,
      "total": 9166,
      "家庭": 9167,
      "zhou": 9168,
      "isten": 9169,
      "results": 9170,
      "ource": 9171,
      "que": 9172,
      "occur": 9173,
      "Teach": 9174,
      "best": 9175,
      "fire": 9176,
      "设备": 9177,
      "tili": 9178,
      "lection": 9179,
      "aim": 9180,
      "我国": 9181,
      "full": 9182,
      "schools": 9183,
      "relationship": 9184,
      "outh": 9185,
      "site": 9186,
      "rate": 9187,
      "网络": 9188,
      "test": 9189,
      "intro": 9190,
      "days": 9191,
      "表示": 9192,
      "amount": 9193,
      "And": 9194,
      "iddle": 9195,
      "love": 9196,
      "Party": 9197,
      "termin": 9198,
      "accoun": 9199,
      "dec": 9200,
      "gradu": 9201,
      "competi": 9202,
      "tre": 9203,
      "人们": 9204,
      "ctor": 9205,
      "difficult": 9206,
      "Wang": 9207,
      "sent": 9208,
      "People": 9209,
      "mus": 9210,
      "wa": 9211,
      "clean": 9212,
      "entr": 9213,
      "service": 9214,
      "ced": 9215,
      "目标": 9216,
      "according": 9217,
      "实验": 9218,
      "水平": 9219,
      "才能": 9220,
      "直接": 9221,
      "joy": 9222,
      "之后": 9223,
      "是否": 9224,
      "tribu": 9225,
      "ples": 9226,
      "pect": 9227,
      "各种": 9228,
      "疾病": 9229,
      "economic": 9230,
      "实际": 9231,
      "traditional": 9232,
      "ountain": 9233,
      "开展": 9234,
      "及时": 9235,
      "朋友": 9236,
      "食物": 9237,
      "means": 9238,
      "ems": 9239,
      "ger": 9240,
      "changes": 9241,
      "valu": 9242,
      "还有": 9243,
      "once": 9244,
      "live": 9245,
      "Zhang": 9246,
      "istration": 9247,
      "ream": 9248,
      "ished": 9249,
      "enhance": 9250,
      "cultural": 9251,
      "bit": 9252,
      "language": 9253,
      "reduc": 9254,
      "actions": 9255,
      "suit": 9256,
      "ights": 9257,
      "ati": 9258,
      "beg": 9259,
      "requirements": 9260,
      "den": 9261,
      "local": 9262,
      "lion": 9263,
      "lay": 9264,
      "mach": 9265,
      "60": 9266,
      "First": 9267,
      "你的": 9268,
      "造成": 9269,
      "temperature": 9270,
      "vant": 9271,
      "moder": 9272,
      "ety": 9273,
      "单位": 9274,
      "activ": 9275,
      "希望": 9276,
      "sim": 9277,
      "17": 9278,
      "ont": 9279,
      "ox": 9280,
      "leading": 9281,
      "wards": 9282,
      "contr": 9283,
      "ink": 9284,
      "孩子的": 9285,
      "questions": 9286,
      "free": 9287,
      "两个": 9288,
      "了一": 9289,
      "结合": 9290,
      "减少": 9291,
      "的事": 9292,
      "来说": 9293,
      "计算": 9294,
      "addition": 9295,
      "其中": 9296,
      "history": 9297,
      "以下": 9298,
      "城市": 9299,
      "force": 9300,
      "type": 9301,
      "government": 9302,
      "short": 9303,
      "books": 9304,
      "institu": 9305,
      "izing": 9306,
      "积极": 9307,
      "bed": 9308,
      "计划": 9309,
      "guid": 9310,
      "gn": 9311,
      "aged": 9312,
      "成绩": 9313,
      "细胞": 9314,
      "理解": 9315,
      "原因": 9316,
      "检查": 9317,
      "already": 9318,
      "daily": 9319,
      "价值": 9320,
      "article": 9321,
      "目前": 9322,
      "pression": 9323,
      "产业": 9324,
      "skills": 9325,
      "entire": 9326,
      "dig": 9327,
      "起来": 9328,
      "start": 9329,
      "ben": 9330,
      "儿童": 9331,
      "美国": 9332,
      "emo": 9333,
      "避免": 9334,
      "innov": 9335,
      "look": 9336,
      "discus": 9337,
      "Su": 9338,
      "一样": 9339,
      "ini": 9340,
      "expl": 9341,
      "过程中": 9342,
      "ynasty": 9343,
      "spirit": 9344,
      "ars": 9345,
      "little": 9346,
      "国际": 9347,
      "hab": 9348,
      "传统": 9349,
      "vention": 9350,
      "tom": 9351,
      "arily": 9352,
      "came": 9353,
      "patients": 9354,
      "leep": 9355,
      "har": 9356,
      "inst": 9357,
      "Sci": 9358,
      "培训": 9359,
      "auti": 9360,
      "structure": 9361,
      "risk": 9362,
      "正确": 9363,
      "sider": 9364,
      "ularly": 9365,
      "提升": 9366,
      "cient": 9367,
      "disease": 9368,
      "normal": 9369,
      "hour": 9370,
      "range": 9371,
      "bor": 9372,
      "sch": 9373,
      "心理": 9374,
      "tific": 9375,
      "City": 9376,
      "effici": 9377,
      "But": 9378,
      "Coun": 9379,
      "Le": 9380,
      "infec": 9381,
      "How": 9382,
      "personal": 9383,
      "wind": 9384,
      "宝宝": 9385,
      "阶段": 9386,
      "sever": 9387,
      "80": 9388,
      "效果": 9389,
      "post": 9390,
      "smo": 9391,
      "think": 9392,
      "Col": 9393,
      "relevant": 9394,
      "就会": 9395,
      "tru": 9396,
      "college": 9397,
      "他的": 9398,
      "apply": 9399,
      "ken": 9400,
      "24": 9401,
      "From": 9402,
      "一步": 9403,
      "任何": 9404,
      "艺术": 9405,
      "阅读": 9406,
      "inc": 9407,
      "uses": 9408,
      "只有": 9409,
      "有关": 9410,
      "申请": 9411,
      "ile": 9412,
      "进入": 9413,
      "cost": 9414,
      "ains": 9415,
      "diseas": 9416,
      "approach": 9417,
      "地方": 9418,
      "关键": 9419,
      "建立": 9420,
      "表现": 9421,
      "equipment": 9422,
      "Pl": 9423,
      "实践": 9424,
      "物质": 9425,
      "erg": 9426,
      "aut": 9427,
      "roll": 9428,
      "case": 9429,
      "sor": 9430,
      "tig": 9431,
      "Wu": 9432,
      "pat": 9433,
      "performance": 9434,
      "参加": 9435,
      "性的": 9436,
      "pho": 9437,
      "幼儿": 9438,
      "gricul": 9439,
      "特别": 9440,
      "coming": 9441,
      "polic": 9442,
      "其实": 9443,
      "建议": 9444,
      "pring": 9445,
      "dro": 9446,
      "abilities": 9447,
      "ute": 9448,
      "culture": 9449,
      "bur": 9450,
      "具体": 9451,
      "采用": 9452,
      "symp": 9453,
      "diseases": 9454,
      "fall": 9455,
      "甚至": 9456,
      "left": 9457,
      "compan": 9458,
      "These": 9459,
      "According": 9460,
      "vehic": 9461,
      "我们的": 9462,
      "sense": 9463,
      "主义": 9464,
      "部门": 9465,
      "bon": 9466,
      "一次": 9467,
      "而且": 9468,
      "成功": 9469,
      "Yang": 9470,
      "problems": 9471,
      "super": 9472,
      "tly": 9473,
      "arr": 9474,
      "Wor": 9475,
      "refers": 9476,
      "eat": 9477,
      "机构": 9478,
      "mainly": 9479,
      "characteristics": 9480,
      "types": 9481,
      "综合": 9482,
      "resources": 9483,
      "frequ": 9484,
      "depend": 9485,
      "ail": 9486,
      "关注": 9487,
      "风险": 9488,
      "lower": 9489,
      "commend": 9490,
      "name": 9491,
      "mone": 9492,
      "posed": 9493,
      "简单": 9494,
      "pose": 9495,
      "past": 9496,
      "代表": 9497,
      "project": 9498,
      "spital": 9499,
      "called": 9500,
      "妈妈": 9501,
      "语言": 9502,
      "role": 9503,
      "further": 9504,
      "思想": 9505,
      "rich": 9506,
      "年的": 9507,
      "thinking": 9508,
      "ceed": 9509,
      "dire": 9510,
      "close": 9511,
      "生命": 9512,
      "许多": 9513,
      "stage": 9514,
      "please": 9515,
      "society": 9516,
      "event": 9517,
      "提出": 9518,
      "ference": 9519,
      "relative": 9520,
      "non": 9521,
      "general": 9522,
      "全国": 9523,
      "include": 9524,
      "few": 9525,
      "cold": 9526,
      "itor": 9527,
      "gree": 9528,
      "方向": 9529,
      "地区": 9530,
      "状态": 9531,
      "理论": 9532,
      "ined": 9533,
      "每天": 9534,
      "2020": 9535,
      "Some": 9536,
      "vin": 9537,
      "symptoms": 9538,
      "Of": 9539,
      "themselves": 9540,
      "Stud": 9541,
      "scientific": 9542,
      "ather": 9543,
      "引起": 9544,
      "secur": 9545,
      "形式": 9546,
      "tea": 9547,
      "One": 9548,
      "ically": 9549,
      "consider": 9550,
      "Bei": 9551,
      "legal": 9552,
      "tiliz": 9553,
      "nu": 9554,
      "alle": 9555,
      "inten": 9556,
      "ator": 9557,
      "might": 9558,
      "ential": 9559,
      "itary": 9560,
      "forms": 9561,
      "ially": 9562,
      "rural": 9563,
      "达到": 9564,
      "enterprises": 9565,
      "baby": 9566,
      "hal": 9567,
      "ming": 9568,
      "remain": 9569,
      "quick": 9570,
      "最后": 9571,
      "color": 9572,
      "member": 9573,
      "模式": 9574,
      "这里": 9575,
      "run": 9576,
      "stu": 9577,
      "wide": 9578,
      "Dynasty": 9579,
      "Man": 9580,
      "rap": 9581,
      "chec": 9582,
      "sign": 9583,
      "Me": 9584,
      "gl": 9585,
      "参与": 9586,
      "怎么": 9587,
      "acade": 9588,
      "Ma": 9589,
      "warm": 9590,
      "levels": 9591,
      "invest": 9592,
      "Bo": 9593,
      "ctions": 9594,
      "hol": 9595,
      "vit": 9596,
      "得到": 9597,
      "increasing": 9598,
      "keep": 9599,
      "writing": 9600,
      "perspec": 9601,
      "share": 9602,
      "tw": 9603,
      "改变": 9604,
      "acid": 9605,
      "无法": 9606,
      "taking": 9607,
      "scal": 9608,
      "因素": 9609,
      "虽然": 9610,
      "hai": 9611,
      "working": 9612,
      "cover": 9613,
      "natural": 9614,
      "activity": 9615,
      "directly": 9616,
      "measures": 9617,
      "limit": 9618,
      "promote": 9619,
      "hor": 9620,
      "意识": 9621,
      "heat": 9622,
      "ancient": 9623,
      "recommend": 9624,
      "ped": 9625,
      "成长": 9626,
      "green": 9627,
      "看到": 9628,
      "努力": 9629,
      "Do": 9630,
      "ili": 9631,
      "istance": 9632,
      "ordin": 9633,
      "sleep": 9634,
      "Province": 9635,
      "需求": 9636,
      "individuals": 9637,
      "benef": 9638,
      "ps": 9639,
      "cord": 9640,
      "是一": 9641,
      "front": 9642,
      "支持": 9643,
      "政策": 9644,
      "works": 9645,
      "生物": 9646,
      "科技": 9647,
      "pects": 9648,
      "习惯": 9649,
      "Techn": 9650,
      "症状": 9651,
      "Reg": 9652,
      "obtain": 9653,
      "refer": 9654,
      "determin": 9655,
      "操作": 9656,
      "lea": 9657,
      "Qing": 9658,
      "cancer": 9659,
      "199": 9660,
      "effective": 9661,
      "five": 9662,
      "pi": 9663,
      "正常": 9664,
      "毕业": 9665,
      "fice": 9666,
      "比如": 9667,
      "anced": 9668,
      "Xi": 9669,
      "eld": 9670,
      "Liu": 9671,
      "ancing": 9672,
      "repor": 9673,
      "represent": 9674,
      "terms": 9675,
      "mom": 9676,
      "away": 9677,
      "educational": 9678,
      "responsi": 9679,
      "transp": 9680,
      "70": 9681,
      "然后": 9682,
      "reduce": 9683,
      "促进": 9684,
      "augh": 9685,
      "strength": 9686,
      "practical": 9687,
      "Nor": 9688,
      "用于": 9689,
      "kind": 9690,
      "appropri": 9691,
      "jiang": 9692,
      "现代": 9693,
      "领域": 9694,
      "Min": 9695,
      "随着": 9696,
      "online": 9697,
      "Po": 9698,
      "的问题": 9699,
      "protection": 9700,
      "文章": 9701,
      "时代": 9702,
      "portun": 9703,
      "mb": 9704,
      "nature": 9705,
      "的大": 9706,
      "ables": 9707,
      "apan": 9708,
      "人类": 9709,
      "original": 9710,
      "introduc": 9711,
      "ply": 9712,
      "Japan": 9713,
      "With": 9714,
      "喜欢": 9715,
      "problem": 9716,
      "party": 9717,
      "关于": 9718,
      "primary": 9719,
      "atory": 9720,
      "Jin": 9721,
      "Mo": 9722,
      "tro": 9723,
      "意义": 9724,
      "shap": 9725,
      "havi": 9726,
      "earch": 9727,
      "ann": 9728,
      "adjust": 9729,
      "prog": 9730,
      "ney": 9731,
      "新的": 9732,
      "训练": 9733,
      "mand": 9734,
      "今天": 9735,
      "我的": 9736,
      "Co": 9737,
      "standing": 9738,
      "loss": 9739,
      "simple": 9740,
      "持续": 9741,
      "verse": 9742,
      "medic": 9743,
      "modern": 9744,
      "除了": 9745,
      "cases": 9746,
      "之一": 9747,
      "更加": 9748,
      "onic": 9749,
      "lot": 9750,
      "factors": 9751,
      "2021": 9752,
      "ior": 9753,
      "lies": 9754,
      "product": 9755,
      "security": 9756,
      "academic": 9757,
      "建筑": 9758,
      "towards": 9759,
      "lives": 9760,
      "opportun": 9761,
      "Guang": 9762,
      "制度": 9763,
      "effect": 9764,
      "gradually": 9765,
      "准备": 9766,
      "master": 9767,
      "tor": 9768,
      "不可": 9769,
      "介绍": 9770,
      "职业": 9771,
      "行业": 9772,
      "降低": 9773,
      "ash": 9774,
      "several": 9775,
      "坚持": 9776,
      "jour": 9777,
      "detail": 9778,
      "wal": 9779,
      "ancial": 9780,
      "By": 9781,
      "space": 9782,
      "impact": 9783,
      "责任": 9784,
      "aspects": 9785,
      "llig": 9786,
      "war": 9787,
      "xim": 9788,
      "sych": 9789,
      "autiful": 9790,
      "gas": 9791,
      "sed": 9792,
      "未来": 9793,
      "考生": 9794,
      "third": 9795,
      "begin": 9796,
      "lines": 9797,
      "做好": 9798,
      "mee": 9799,
      "suitable": 9800,
      "qual": 9801,
      "systems": 9802,
      "ax": 9803,
      "os": 9804,
      "women": 9805,
      "作者": 9806,
      "wel": 9807,
      "Gener": 9808,
      "big": 9809,
      "故事": 9810,
      "ision": 9811,
      "Commun": 9812,
      "实施": 9813,
      "won": 9814,
      "作品": 9815,
      "effectively": 9816,
      "2022": 9817,
      "another": 9818,
      "services": 9819,
      "dam": 9820,
      "交流": 9821,
      "按照": 9822,
      "analysis": 9823,
      "requires": 9824,
      "aking": 9825,
      "oil": 9826,
      "共同": 9827,
      "加强": 9828,
      "每个": 9829,
      "single": 9830,
      "21": 9831,
      "forward": 9832,
      "不得": 9833,
      "决定": 9834,
      "合作": 9835,
      "法律": 9836,
      "express": 9837,
      "plat": 9838,
      "空间": 9839,
      "condition": 9840,
      "recei": 9841,
      "Beijing": 9842,
      "met": 9843,
      "relatively": 9844,
      "High": 9845,
      "医院": 9846,
      "投资": 9847,
      "联系": 9848,
      "living": 9849,
      "applic": 9850,
      "multiple": 9851,
      "严重": 9852,
      "members": 9853,
      "contact": 9854,
      "Research": 9855,
      "bro": 9856,
      "night": 9857,
      "behavi": 9858,
      "crip": 9859,
      "money": 9860,
      "issue": 9861,
      "never": 9862,
      "vere": 9863,
      "小学": 9864,
      "ining": 9865,
      "review": 9866,
      "give": 9867,
      "第三": 9868,
      "dev": 9869,
      "卫生": 9870,
      "小时": 9871,
      "指导": 9872,
      "觉得": 9873,
      "stead": 9874,
      "Im": 9875,
      "tech": 9876,
      "poten": 9877,
      "civil": 9878,
      "ient": 9879,
      "usu": 9880,
      "ane": 9881,
      "erly": 9882,
      "开发": 9883,
      "choose": 9884,
      "有的": 9885,
      "att": 9886,
      "营养": 9887,
      "mechan": 9888,
      "tries": 9889,
      "matter": 9890,
      "nutri": 9891,
      "属于": 9892,
      "speed": 9893,
      "official": 9894,
      "sequ": 9895,
      "draw": 9896,
      "只是": 9897,
      "用户": 9898,
      "break": 9899,
      "程度": 9900,
      "tow": 9901,
      "emerg": 9902,
      "fail": 9903,
      "Ro": 9904,
      "return": 9905,
      "itical": 9906,
      "平台": 9907,
      "log": 9908,
      "sidered": 9909,
      "Lu": 9910,
      "later": 9911,
      "considered": 9912,
      "result": 9913,
      "sions": 9914,
      "ule": 9915,
      "继续": 9916,
      "lected": 9917,
      "Ap": 9918,
      "Or": 9919,
      "保证": 9920,
      "simil": 9921,
      "ames": 9922,
      "民族": 9923,
      "degree": 9924,
      "22": 9925,
      "反应": 9926,
      "standards": 9927,
      "从而": 9928,
      "劳动": 9929,
      "tered": 9930,
      "create": 9931,
      "ified": 9932,
      "交通": 9933,
      "受到": 9934,
      "versi": 9935,
      "immedi": 9936,
      "ineering": 9937,
      "surface": 9938,
      "体系": 9939,
      "weak": 9940,
      "acy": 9941,
      "meet": 9942,
      "ained": 9943,
      "communication": 9944,
      "ried": 9945,
      "量的": 9946,
      "exercise": 9947,
      "round": 9948,
      "超过": 9949,
      "丰富": 9950,
      "easy": 9951,
      "quickly": 9952,
      "表达": 9953,
      "histor": 9954,
      "middle": 9955,
      "一下": 9956,
      "完全": 9957,
      "beautiful": 9958,
      "sun": 9959,
      "fied": 9960,
      "load": 9961,
      "weight": 9962,
      "photo": 9963,
      "era": 9964,
      "ler": 9965,
      "长期": 9966,
      "oking": 9967,
      "ists": 9968,
      "chall": 9969,
      "allowing": 9970,
      "meaning": 9971,
      "similar": 9972,
      "应当": 9973,
      "admin": 9974,
      "fru": 9975,
      "23": 9976,
      "Pre": 9977,
      "经验": 9978,
      "serve": 9979,
      "Let": 9980,
      "influ": 9981,
      "北京": 9982,
      "pen": 9983,
      "since": 9984,
      "智能": 9985,
      "actively": 9986,
      "wee": 9987,
      "Chen": 9988,
      "paper": 9989,
      "certific": 9990,
      "Shang": 9991,
      "foundation": 9992,
      "scale": 9993,
      "iety": 9994,
      "hands": 9995,
      "Every": 9996,
      "一直": 9997,
      "hao": 9998,
      "unch": 9999,
      "的重要": 10000,
      "going": 10001,
      "sof": 10002,
      "接受": 10003,
      "espec": 10004,
      "exten": 10005,
      "appear": 10006,
      "atic": 10007,
      "进一步": 10008,
      "bring": 10009,
      "fair": 10010,
      "especially": 10011,
      "Jiang": 10012,
      "Xiao": 10013,
      "经常": 10014,
      "andid": 10015,
      "aff": 10016,
      "advant": 10017,
      "village": 10018,
      "arri": 10019,
      "waste": 10020,
      "countries": 10021,
      "easily": 10022,
      "emphas": 10023,
      "tar": 10024,
      "identi": 10025,
      "Med": 10026,
      "ake": 10027,
      "稳定": 10028,
      "面的": 10029,
      "ishing": 10030,
      "cessive": 10031,
      "camp": 10032,
      "mountain": 10033,
      "经过": 10034,
      "Article": 10035,
      "established": 10036,
      "County": 10037,
      "报告": 10038,
      "yet": 10039,
      "真正": 10040,
      "pot": 10041,
      "liter": 10042,
      "Yu": 10043,
      "building": 10044,
      "half": 10045,
      "Dr": 10046,
      "sound": 10047,
      "确定": 10048,
      "chem": 10049,
      "Rec": 10050,
      "掌握": 10051,
      "消费": 10052,
      "utes": 10053,
      "disci": 10054,
      "believe": 10055,
      "perspective": 10056,
      "首先": 10057,
      "having": 10058,
      "Sec": 10059,
      "任务": 10060,
      "ators": 10061,
      "Distr": 10062,
      "压力": 10063,
      "trac": 10064,
      "white": 10065,
      "bot": 10066,
      "answer": 10067,
      "igure": 10068,
      "feed": 10069,
      "学生的": 10070,
      "continue": 10071,
      "harm": 10072,
      "job": 10073,
      "lack": 10074,
      "severe": 10075,
      "90": 10076,
      "Shen": 10077,
      "也有": 10078,
      "都有": 10079,
      "courses": 10080,
      "writ": 10081,
      "不同的": 10082,
      "listen": 10083,
      "分享": 10084,
      "政治": 10085,
      "自我": 10086,
      "along": 10087,
      "hours": 10088,
      "District": 10089,
      "duce": 10090,
      "farm": 10091,
      "范围": 10092,
      "defin": 10093,
      "疫情": 10094,
      "hope": 10095,
      "analy": 10096,
      "Many": 10097,
      "ules": 10098,
      "overall": 10099,
      "ev": 10100,
      "assess": 10101,
      "mag": 10102,
      "stop": 10103,
      "考虑": 10104,
      "financial": 10105,
      "Department": 10106,
      "这样的": 10107,
      "agricul": 10108,
      "fre": 10109,
      "uter": 10110,
      "期间": 10111,
      "孩子们": 10112,
      "appropriate": 10113,
      "感染": 10114,
      "措施": 10115,
      "数字": 10116,
      "thus": 10117,
      "why": 10118,
      "Technology": 10119,
      "prevention": 10120,
      "ought": 10121,
      "particularly": 10122,
      "industrial": 10123,
      "provided": 10124,
      "eyes": 10125,
      "电子": 10126,
      "mption": 10127,
      "next": 10128,
      "专家": 10129,
      "方案": 10130,
      "given": 10131,
      "inking": 10132,
      "valuation": 10133,
      "skin": 10134,
      "flo": 10135,
      "pal": 10136,
      "东西": 10137,
      "international": 10138,
      "graduate": 10139,
      "重点": 10140,
      "intellig": 10141,
      "truly": 10142,
      "目的": 10143,
      "umn": 10144,
      "Child": 10145,
      "Mar": 10146,
      "far": 10147,
      "glo": 10148,
      "它们": 10149,
      "机会": 10150,
      "electric": 10151,
      "hind": 10152,
      "exper": 10153,
      "inde": 10154,
      "umul": 10155,
      "vincial": 10156,
      "Is": 10157,
      "rain": 10158,
      "并且": 10159,
      "2019": 10160,
      "explo": 10161,
      "required": 10162,
      "regulations": 10163,
      "She": 10164,
      "jud": 10165,
      "也会": 10166,
      "特点": 10167,
      "现象": 10168,
      "taken": 10169,
      "against": 10170,
      "meeting": 10171,
      "held": 10172,
      "word": 10173,
      "psych": 10174,
      "医疗": 10175,
      "verage": 10176,
      "forts": 10177,
      "friends": 10178,
      "institutions": 10179,
      "体育": 10180,
      "ank": 10181,
      "true": 10182,
      "something": 10183,
      "情绪": 10184,
      "说明": 10185,
      "today": 10186,
      "science": 10187,
      "Xin": 10188,
      "source": 10189,
      "surance": 10190,
      "military": 10191,
      "ID": 10192,
      "liver": 10193,
      "strengthen": 10194,
      "town": 10195,
      "Tai": 10196,
      "优秀": 10197,
      "后的": 10198,
      "bat": 10199,
      "主题": 10200,
      "是一个": 10201,
      "温度": 10202,
      "认识": 10203,
      "速度": 10204,
      "web": 10205,
      "subst": 10206,
      "都会": 10207,
      "table": 10208,
      "领导": 10209,
      "report": 10210,
      "progress": 10211,
      "保障": 10212,
      "英语": 10213,
      "compon": 10214,
      "tude": 10215,
      "ternal": 10216,
      "思维": 10217,
      "tivity": 10218,
      "ging": 10219,
      "yang": 10220,
      "elderly": 10221,
      "的发展": 10222,
      "创造": 10223,
      "改革": 10224,
      "foods": 10225,
      "separ": 10226,
      "six": 10227,
      "vious": 10228,
      "Science": 10229,
      "core": 10230,
      "mention": 10231,
      "Second": 10232,
      "一定要": 10233,
      "时期": 10234,
      "生的": 10235,
      "volution": 10236,
      "Prof": 10237,
      "All": 10238,
      "感觉": 10239,
      "生态": 10240,
      "符合": 10241,
      "CO": 10242,
      "istic": 10243,
      "calcul": 10244,
      "体的": 10245,
      "分钟": 10246,
      "只要": 10247,
      "ident": 10248,
      "direction": 10249,
      "immediately": 10250,
      "rather": 10251,
      "pic": 10252,
      "Zhu": 10253,
      "competition": 10254,
      "cut": 10255,
      "eating": 10256,
      "思考": 10257,
      "的情况": 10258,
      "工业": 10259,
      "执行": 10260,
      "lease": 10261,
      "plant": 10262,
      "significantly": 10263,
      "合理": 10264,
      "而是": 10265,
      "department": 10266,
      "usually": 10267,
      "之前": 10268,
      "recent": 10269,
      "solid": 10270,
      "graph": 10271,
      "明显": 10272,
      "ung": 10273,
      "foreign": 10274,
      "subject": 10275,
      "三个": 10276,
      "最终": 10277,
      "drug": 10278,
      "positive": 10279,
      "II": 10280,
      "Since": 10281,
      "bir": 10282,
      "显示": 10283,
      "formul": 10284,
      "hear": 10285,
      "near": 10286,
      "农业": 10287,
      "出了": 10288,
      "预防": 10289,
      "promp": 10290,
      "Hong": 10291,
      "preci": 10292,
      "2017": 10293,
      "complex": 10294,
      "重要的": 10295,
      "efficiency": 10296,
      "充分": 10297,
      "anim": 10298,
      "thema": 10299,
      "itch": 10300,
      "dia": 10301,
      "hood": 10302,
      "Through": 10303,
      "调整": 10304,
      "veget": 10305,
      "ending": 10306,
      "commit": 10307,
      "encour": 10308,
      "ification": 10309,
      "includes": 10310,
      "Although": 10311,
      "inder": 10312,
      "oud": 10313,
      "fy": 10314,
      "数学": 10315,
      "limin": 10316,
      "cop": 10317,
      "patient": 10318,
      "address": 10319,
      "behavior": 10320,
      "Ri": 10321,
      "ues": 10322,
      "兴趣": 10323,
      "观察": 10324,
      "tiz": 10325,
      "joint": 10326,
      "categ": 10327,
      "规划": 10328,
      "itation": 10329,
      "spor": 10330,
      "responsibility": 10331,
      "discipl": 10332,
      "cli": 10333,
      "来越": 10334,
      "ury": 10335,
      "excell": 10336,
      "efforts": 10337,
      "ublic": 10338,
      "account": 10339,
      "28": 10340,
      "也不": 10341,
      "全球": 10342,
      "until": 10343,
      "hot": 10344,
      "community": 10345,
      "ret": 10346,
      "caused": 10347,
      "增长": 10348,
      "越来越": 10349,
      "面对": 10350,
      "estic": 10351,
      "const": 10352,
      "enjoy": 10353,
      "concer": 10354,
      "poor": 10355,
      "neg": 10356,
      "United": 10357,
      "moment": 10358,
      "historical": 10359,
      "通常": 10360,
      "affic": 10361,
      "行动": 10362,
      "prepar": 10363,
      "他们的": 10364,
      "generally": 10365,
      "Under": 10366,
      "squ": 10367,
      "suffici": 10368,
      "techni": 10369,
      "招生": 10370,
      "serious": 10371,
      "安排": 10372,
      "sugg": 10373,
      "doing": 10374,
      "network": 10375,
      "entrance": 10376,
      "ls": 10377,
      "普通": 10378,
      "conven": 10379,
      "admission": 10380,
      "comfort": 10381,
      "measure": 10382,
      "Qi": 10383,
      "peror": 10384,
      "Comp": 10385,
      "transport": 10386,
      "26": 10387,
      "团队": 10388,
      "评价": 10389,
      "错误": 10390,
      "istry": 10391,
      "stor": 10392,
      "regular": 10393,
      "broad": 10394,
      "active": 10395,
      "concept": 10396,
      "consumption": 10397,
      "Cul": 10398,
      "取得": 10399,
      "seen": 10400,
      "quite": 10401,
      "cade": 10402,
      "swe": 10403,
      "人才": 10404,
      "力量": 10405,
      "versities": 10406,
      "spring": 10407,
      "满足": 10408,
      "principle": 10409,
      "sports": 10410,
      "sw": 10411,
      "是在": 10412,
      "有一": 10413,
      "summer": 10414,
      "guidance": 10415,
      "supply": 10416,
      "million": 10417,
      "check": 10418,
      "vo": 10419,
      "化学": 10420,
      "atures": 10421,
      "manner": 10422,
      "companies": 10423,
      "全面": 10424,
      "如此": 10425,
      "actually": 10426,
      "studies": 10427,
      "son": 10428,
      "lied": 10429,
      "Zhen": 10430,
      "核心": 10431,
      "ester": 10432,
      "demand": 10433,
      "prep": 10434,
      "docu": 10435,
      "standard": 10436,
      "cular": 10437,
      "tribut": 10438,
      "cells": 10439,
      "Han": 10440,
      "nation": 10441,
      "区域": 10442,
      "原则": 10443,
      "urban": 10444,
      "correspon": 10445,
      "College": 10446,
      "constant": 10447,
      "Cur": 10448,
      "ball": 10449,
      "负责": 10450,
      "enough": 10451,
      "sem": 10452,
      "ousand": 10453,
      "effects": 10454,
      "位置": 10455,
      "registration": 10456,
      "longer": 10457,
      "Three": 10458,
      "guide": 10459,
      "candid": 10460,
      "样的": 10461,
      "esti": 10462,
      "series": 10463,
      "sty": 10464,
      "projects": 10465,
      "Em": 10466,
      "出来": 10467,
      "自身": 10468,
      "divided": 10469,
      "slow": 10470,
      "增强": 10471,
      "ible": 10472,
      "蛋白": 10473,
      "technical": 10474,
      "是一种": 10475,
      "iter": 10476,
      "makes": 10477,
      "tax": 10478,
      "Commit": 10479,
      "father": 10480,
      "Ph": 10481,
      "带来": 10482,
      "有些": 10483,
      "rely": 10484,
      "tures": 10485,
      "hospital": 10486,
      "providing": 10487,
      "Song": 10488,
      "usion": 10489,
      "设置": 10490,
      "资料": 10491,
      "last": 10492,
      "whole": 10493,
      "ions": 10494,
      "Teacher": 10495,
      "ufact": 10496,
      "ureau": 10497,
      "causing": 10498,
      "化的": 10499,
      "社区": 10500,
      "空气": 10501,
      "针对": 10502,
      "的小": 10503,
      "phy": 10504,
      "functions": 10505,
      "Develop": 10506,
      "ui": 10507,
      "动物": 10508,
      "现场": 10509,
      "concentr": 10510,
      "tribution": 10511,
      "Now": 10512,
      "食品": 10513,
      "story": 10514,
      "across": 10515,
      "behind": 10516,
      "cruc": 10517,
      "unique": 10518,
      "central": 10519,
      "Dis": 10520,
      "Please": 10521,
      "center": 10522,
      "tice": 10523,
      "rences": 10524,
      "brain": 10525,
      "enced": 10526,
      "ugg": 10527,
      "accumul": 10528,
      "friend": 10529,
      "medicine": 10530,
      "wall": 10531,
      "困难": 10532,
      "的话": 10533,
      "tool": 10534,
      "accur": 10535,
      "thern": 10536,
      "Mr": 10537,
      "例如": 10538,
      "发挥": 10539,
      "明确": 10540,
      "饮食": 10541,
      "compl": 10542,
      "essor": 10543,
      "participate": 10544,
      "door": 10545,
      "mitted": 10546,
      "university": 10547,
      "Fin": 10548,
      "sil": 10549,
      "为什么": 10550,
      "公共": 10551,
      "independ": 10552,
      "2018": 10553,
      "evaluation": 10554,
      "左右": 10555,
      "汽车": 10556,
      "ilo": 10557,
      "必要": 10558,
      "的高": 10559,
      "remo": 10560,
      "sugar": 10561,
      "Inter": 10562,
      "veness": 10563,
      "political": 10564,
      "capital": 10565,
      "pattern": 10566,
      "bene": 10567,
      "formed": 10568,
      "minutes": 10569,
      "strict": 10570,
      "innovation": 10571,
      "适合": 10572,
      "estern": 10573,
      "tell": 10574,
      "location": 10575,
      "platform": 10576,
      "ume": 10577,
      "无论": 10578,
      "的时间": 10579,
      "vered": 10580,
      "suring": 10581,
      "改善": 10582,
      "记者": 10583,
      "那些": 10584,
      "exceed": 10585,
      "hua": 10586,
      "AI": 10587,
      "fat": 10588,
      "rights": 10589,
      "sess": 10590,
      "分为": 10591,
      "推动": 10592,
      "hea": 10593,
      "une": 10594,
      "Da": 10595,
      "sigh": 10596,
      "counter": 10597,
      "healthy": 10598,
      "investment": 10599,
      "农村": 10600,
      "学科": 10601,
      "技能": 10602,
      "调查": 10603,
      "thought": 10604,
      "cas": 10605,
      "mas": 10606,
      "ster": 10607,
      "becoming": 10608,
      "estival": 10609,
      "接触": 10610,
      "items": 10611,
      "personnel": 10612,
      "implementation": 10613,
      "lt": 10614,
      "成本": 10615,
      "ense": 10616,
      "rapid": 10617,
      "potential": 10618,
      "尤其": 10619,
      "environmental": 10620,
      "Law": 10621,
      "出的": 10622,
      "课堂": 10623,
      "inspec": 10624,
      "27": 10625,
      "不过": 10626,
      "类型": 10627,
      "idence": 10628,
      "拥有": 10629,
      "phen": 10630,
      "staff": 10631,
      "below": 10632,
      "located": 10633,
      "starting": 10634,
      "recogn": 10635,
      "recommended": 10636,
      "sufficient": 10637,
      "下来": 10638,
      "污染": 10639,
      "采取": 10640,
      "developed": 10641,
      "generation": 10642,
      "Class": 10643,
      "35": 10644,
      "报名": 10645,
      "thereby": 10646,
      "Exam": 10647,
      "policy": 10648,
      "benefits": 10649,
      "不到": 10650,
      "测试": 10651,
      "excessive": 10652,
      "parts": 10653,
      "internal": 10654,
      "regard": 10655,
      "universities": 10656,
      "conducted": 10657,
      "months": 10658,
      "crucial": 10659,
      "bil": 10660,
      "reform": 10661,
      "assi": 10662,
      "stitute": 10663,
      "elements": 10664,
      "Committee": 10665,
      "secre": 10666,
      "began": 10667,
      "Chang": 10668,
      "Wei": 10669,
      "Before": 10670,
      "morning": 10671,
      "之间的": 10672,
      "install": 10673,
      "voc": 10674,
      "防止": 10675,
      "tives": 10676,
      "acks": 10677,
      "grade": 10678,
      "affect": 10679,
      "mix": 10680,
      "traffic": 10681,
      "experiences": 10682,
      "economy": 10683,
      "filled": 10684,
      "allevi": 10685,
      "Children": 10686,
      "kid": 10687,
      "pan": 10688,
      "作业": 10689,
      "别人": 10690,
      "经营": 10691,
      "micro": 10692,
      "告诉": 10693,
      "程序": 10694,
      "meters": 10695,
      "不少": 10696,
      "学会": 10697,
      "stat": 10698,
      "upon": 10699,
      "dry": 10700,
      "就业": 10701,
      "aps": 10702,
      "extre": 10703,
      "travel": 10704,
      "高的": 10705,
      "thousand": 10706,
      "unit": 10707,
      "lif": 10708,
      "yourself": 10709,
      "carbon": 10710,
      "classes": 10711,
      "saying": 10712,
      "经历": 10713,
      "diet": 10714,
      "initi": 10715,
      "born": 10716,
      "beginning": 10717,
      "Four": 10718,
      "least": 10719,
      "pop": 10720,
      "文明": 10721,
      "Only": 10722,
      "chemical": 10723,
      "challeng": 10724,
      "base": 10725,
      "自由": 10726,
      "运用": 10727,
      "irm": 10728,
      "ei": 10729,
      "尽量": 10730,
      "是指": 10731,
      "sts": 10732,
      "fish": 10733,
      "zed": 10734,
      "往往": 10735,
      "整个": 10736,
      "来自": 10737,
      "相对": 10738,
      "worth": 10739,
      "engage": 10740,
      "mentioned": 10741,
      "eth": 10742,
      "nur": 10743,
      "快速": 10744,
      "证明": 10745,
      "发展的": 10746,
      "currently": 10747,
      "oth": 10748,
      "正在": 10749,
      "section": 10750,
      "manufact": 10751,
      "Village": 10752,
      "效率": 10753,
      "really": 10754,
      "astic": 10755,
      "actual": 10756,
      "places": 10757,
      "Nan": 10758,
      "ition": 10759,
      "发布": 10760,
      "业务": 10761,
      "size": 10762,
      "elf": 10763,
      "origin": 10764,
      "wise": 10765,
      "药物": 10766,
      "enroll": 10767,
      "ensuring": 10768,
      "takes": 10769,
      "transfer": 10770,
      "氧化": 10771,
      "病毒": 10772,
      "erous": 10773,
      "组成": 10774,
      "essential": 10775,
      "udd": 10776,
      "groups": 10777,
      "score": 10778,
      "保险": 10779,
      "分别": 10780,
      "规范": 10781,
      "insurance": 10782,
      "media": 10783,
      "advance": 10784,
      "opening": 10785,
      "damage": 10786,
      "River": 10787,
      "Go": 10788,
      "average": 10789,
      "sl": 10790,
      "制造": 10791,
      "结束": 10792,
      "became": 10793,
      "popul": 10794,
      "States": 10795,
      "leader": 10796,
      "organiz": 10797,
      "确保": 10798,
      "血管": 10799,
      "death": 10800,
      "ading": 10801,
      "May": 10802,
      "游戏": 10803,
      "seed": 10804,
      "decre": 10805,
      "excellent": 10806,
      "Based": 10807,
      "体验": 10808,
      "tempor": 10809,
      "复杂": 10810,
      "常见": 10811,
      "也可以": 10812,
      "办法": 10813,
      "areness": 10814,
      "dream": 10815,
      "免疫": 10816,
      "took": 10817,
      "Zhou": 10818,
      "employment": 10819,
      "household": 10820,
      "生长": 10821,
      "运行": 10822,
      "音乐": 10823,
      "Center": 10824,
      "utiliz": 10825,
      "人体": 10826,
      "有了": 10827,
      "检测": 10828,
      "promoting": 10829,
      "Fu": 10830,
      "Lo": 10831,
      "不足": 10832,
      "stimul": 10833,
      "phone": 10834,
      "tasks": 10835,
      "cultivate": 10836,
      "property": 10837,
      "下的": 10838,
      "以后": 10839,
      "工具": 10840,
      "统一": 10841,
      "同学们": 10842,
      "vehicle": 10843,
      "gni": 10844,
      "大多": 10845,
      "当然": 10846,
      "doctor": 10847,
      "male": 10848,
      "purpose": 10849,
      "emotions": 10850,
      "Shanghai": 10851,
      "Bureau": 10852,
      "tren": 10853,
      "日常": 10854,
      "日本": 10855,
      "让孩子": 10856,
      "adop": 10857,
      "pected": 10858,
      "continuously": 10859,
      "tation": 10860,
      "tour": 10861,
      "absor": 10862,
      "classroom": 10863,
      "Management": 10864,
      "extreme": 10865,
      "ton": 10866,
      "price": 10867,
      "ellow": 10868,
      "Health": 10869,
      "achieved": 10870,
      "mass": 10871,
      "的影响": 10872,
      "inves": 10873,
      "someone": 10874,
      "greater": 10875,
      "Yuan": 10876,
      "dou": 10877,
      "传播": 10878,
      "宣传": 10879,
      "并不": 10880,
      "植物": 10881,
      "demon": 10882,
      "image": 10883,
      "completed": 10884,
      "一点": 10885,
      "几个": 10886,
      "良好的": 10887,
      "def": 10888,
      "3年": 10889,
      "45": 10890,
      "医生": 10891,
      "distance": 10892,
      "promptly": 10893,
      "Ji": 10894,
      "done": 10895,
      "watch": 10896,
      "做到": 10897,
      "年龄": 10898,
      "asp": 10899,
      "shan": 10900,
      "outside": 10901,
      "commer": 10902,
      "mber": 10903,
      "fication": 10904,
      "awareness": 10905,
      "ligh": 10906,
      "记录": 10907,
      "ays": 10908,
      "protec": 10909,
      "uro": 10910,
      "教授": 10911,
      "income": 10912,
      "shown": 10913,
      "black": 10914,
      "objec": 10915,
      "carry": 10916,
      "Bec": 10917,
      "season": 10918,
      "code": 10919,
      "week": 10920,
      "cup": 10921,
      "pas": 10922,
      "你们": 10923,
      "录取": 10924,
      "特殊": 10925,
      "fering": 10926,
      "shows": 10927,
      "ring": 10928,
      "scre": 10929,
      "anch": 10930,
      "increased": 10931,
      "published": 10932,
      "meric": 10933,
      "Des": 10934,
      "bar": 10935,
      "的最": 10936,
      "系列": 10937,
      "鼓励": 10938,
      "isting": 10939,
      "external": 10940,
      "198": 10941,
      "avy": 10942,
      "campus": 10943,
      "国内": 10944,
      "rently": 10945,
      "fix": 10946,
      "turned": 10947,
      "Here": 10948,
      "importance": 10949,
      "provides": 10950,
      "schol": 10951,
      "written": 10952,
      "Each": 10953,
      "呼吸": 10954,
      "ister": 10955,
      "General": 10956,
      "制定": 10957,
      "就可以": 10958,
      "的方法": 10959,
      "者的": 10960,
      "规模": 10961,
      "ouch": 10962,
      "ides": 10963,
      "syn": 10964,
      "follows": 10965,
      "Fo": 10966,
      "ered": 10967,
      "时的": 10968,
      "神经": 10969,
      "群众": 10970,
      "expression": 10971,
      "pair": 10972,
      "planning": 10973,
      "corresponding": 10974,
      "Americ": 10975,
      "Tang": 10976,
      "文件": 10977,
      "皮肤": 10978,
      "leave": 10979,
      "pover": 10980,
      "display": 10981,
      "mark": 10982,
      "primarily": 10983,
      "leaves": 10984,
      "winter": 10985,
      "制作": 10986,
      "ison": 10987,
      "responsible": 10988,
      "conduct": 10989,
      "principles": 10990,
      "Budd": 10991,
      "ich": 10992,
      "感受": 10993,
      "来看": 10994,
      "inner": 10995,
      "recor": 10996,
      "arti": 10997,
      "fields": 10998,
      "Can": 10999,
      "Long": 11000,
      "late": 11001,
      "元素": 11002,
      "现实": 11003,
      "相应": 11004,
      "likely": 11005,
      "employe": 11006,
[...]
